<pad>	0
<s>	0
</s>	0
<unk>	0
[MASK]	0
[SEP]	0
▁।	-3.2664
ं	-3.72077
ः	-3.8331
,	-3.83911
▁	-4.05096
-	-4.26439
स्य	-4.34708
।	-4.50991
म्	-4.52164
▁==	-4.56469
े	-4.6713
▁च	-4.69064
ा	-4.86907
▁इति	-5.11551
.	-5.23619
ाः	-5.28141
▁अस्ति	-5.33438
)	-5.36279
▁(	-5.38899
ो	-5.53578
▁भवति	-5.53949
▁न	-5.62331
ेन	-5.62779
▁एव	-5.77887
▁अपि	-5.86353
ी	-5.90856
:	-5.91203
▁आसीत्	-5.95726
ेषु	-6.02704
ानि	-6.05854
ानां	-6.06961
▁तस्य	-6.1218
▁-	-6.12643
▁सन्ति	-6.13867
▁===	-6.15742
म	-6.17186
▁अस्य	-6.18314
▁अ	-6.19219
'	-6.19336
▁स	-6.20313
्	-6.20527
ि	-6.25884
▁'	-6.29127
▁सः	-6.29809
ात्	-6.37821
▁##	-6.4034
▁वा	-6.40379
ाय	-6.44495
क	-6.44851
▁सह	-6.45089
▁यत्	-6.49356
न	-6.52658
▁तथा	-6.56671
ौ	-6.60225
ैः	-6.61652
▁अत्र	-6.61668
▁वर्षे	-6.64204
ान्	-6.64344
तः	-6.65497
▁=	-6.67726
▁स्म	-6.70294
▁यथा	-6.7298
▁हि	-6.74131
▁अभवत्	-6.74348
▁तमे	-6.74987
ता	-6.76358
्य	-6.78194
▁तु	-6.80485
श्च	-6.80912
▁स्व	-6.82068
त	-6.82709
या	-6.82924
▁–	-6.84016
श	-6.84856
▁तत्र	-6.8544
▁"	-6.89644
▁भवन्ति	-6.9031
ेण	-6.90419
ति	-6.91447
▁अतः	-6.93352
▁॥	-6.94004
▁“	-6.95208
र	-6.96041
▁नाम	-6.96183
▁सा	-6.96205
न्	-6.97106
▁तदा	-6.97392
याः	-6.97399
▁अस्मिन्	-6.97754
”	-6.98448
स	-6.99203
▁‘	-7.03621
रूपेण	-7.04454
’	-7.05108
▁प्रति	-7.05265
▁the	-7.05399
योः	-7.06904
र्	-7.07221
य	-7.07934
▁आ	-7.08352
ल	-7.08817
▁करोति	-7.13389
▁ते	-7.15461
स्	-7.15617
"	-7.15762
मेव	-7.16248
▁वि	-7.16358
व	-7.17228
▁वर्तते	-7.17987
▁at	-7.20033
▁प्र	-7.20864
ना	-7.23613
▁Archived	-7.24103
▁तेन	-7.25201
▁यदा	-7.26501
Wayback	-7.27302
▁Machine	-7.27387
▁कर्तुं	-7.27456
▁भारतस्य	-7.28969
▁एतत्	-7.29137
▁श्री	-7.29867
▁अयं	-7.30022
मपि	-7.31061
ीय	-7.32263
त्वेन	-7.33247
▁तत्	-7.34083
▁किन्तु	-7.34689
वि	-7.37028
▁सर्व	-7.37288
ते	-7.38253
अ	-7.39294
ाणां	-7.39951
▁इत्यस्य	-7.41497
द	-7.41525
▁१	-7.42346
▁तेषां	-7.42701
▁कृत्वा	-7.42715
नि	-7.42728
ादि	-7.43629
▁:	-7.43728
s	-7.44954
ानाम्	-7.46235
त्	-7.47249
▁एवं	-7.47381
ञ्च	-7.47614
ज	-7.47913
▁इदं	-7.47964
▁क	-7.48626
(	-7.48822
मी	-7.51656
सु	-7.52439
वान्	-7.52963
प	-7.54071
▁ततः	-7.5509
▁भारतीय	-7.55594
मस्ति	-7.56238
यां	-7.57017
▁परन्तु	-7.57504
▁कृते	-7.57658
▁सम्बद्धाः	-7.57757
ल्	-7.58509
▁स्वस्य	-7.5956
मा	-7.59614
▁लेखाः	-7.60186
▁जनाः	-7.60286
▁बाह्य	-7.64438
ग	-7.64638
षु	-7.65904
▁विषये	-7.66004
▁आसन्	-7.66902
▁एषः	-7.67087
▁एक	-7.67356
▁कि	-7.67654
च	-7.68111
▁कुर्वन्ति	-7.68263
▁२	-7.68783
भिः	-7.68974
▁सु	-7.69085
तया	-7.69676
▁पूर्व	-7.70376
ार्थं	-7.70579
▁तस्मिन्	-7.71209
▁यदि	-7.73255
मिति	-7.73269
पि	-7.73838
▁अथवा	-7.74877
▁सं	-7.7534
ाणि	-7.75745
ह	-7.75825
▁म	-7.76456
▁शक्यते	-7.77222
िक	-7.77397
यति	-7.78093
ेभ्यः	-7.78305
प्र	-7.7861
▁यः	-7.79418
▁धर्म	-7.79736
▁विद्यते	-7.80655
▁क्रि	-7.8076
▁दृश्यते	-7.81508
▁कृतवान्	-7.82354
▁|	-7.82926
त्वं	-7.83121
▁३	-7.83465
▁यत्र	-7.84317
▁यावत्	-7.84327
का	-7.84378
ड	-7.8492
ण	-7.85619
सम्पर्कतन्तुः	-7.87076
रा	-7.87372
▁)	-7.87524
ङ्ग	-7.87638
▁ये	-7.8793
▁अकरोत्	-7.88918
सि	-7.8934
▁उप	-7.89568
▁एषा	-7.90252
/	-7.90588
▁केवलं	-7.91026
ोऽपि	-7.91422
▁तस्याः	-7.91467
्या	-7.91986
▁महा	-7.92106
▁एकः	-7.92364
▁बहु	-7.92497
▁?	-7.9291
नां	-7.94102
▁नि	-7.9423
▁जन्म	-7.95018
▁मध्ये	-7.9519
क्	-7.95752
▁कार्यं	-7.95932
▁त	-7.9597
▁येन	-7.9609
▁राजा	-7.96519
▁प्रथम	-7.96613
मण्डलम्	-7.96805
▁कर्म	-7.97714
▁योग	-7.98237
▁पुनः	-7.98282
ित	-7.98702
ार्थ	-7.98821
▁देव	-7.98857
िका	-7.98895
▁एतस्य	-7.98905
▁तर्हि	-7.99001
▁नास्ति	-7.99311
राज	-8.01068
वा	-8.01105
▁अन्य	-8.01183
ै	-8.01554
▁पञ्च	-8.01576
ु	-8.01917
▁मण्डलस्य	-8.02006
ट	-8.0206
१	-8.02159
▁तथापि	-8.02458
▁१८	-8.0312
त्व	-8.04044
तु	-8.04127
काले	-8.0468
॥	-8.05372
▁ज्ञान	-8.05582
यो	-8.0567
स्तु	-8.06096
▁४	-8.06648
▁संस्कृतम्	-8.06892
री	-8.07704
▁अनेन	-8.07981
▁प	-8.08082
▁या	-8.08182
ला	-8.08265
ां	-8.0842
सा	-8.08563
▁तेषु	-8.08979
नगरे	-8.09048
ोऽ	-8.09183
न्ति	-8.09224
▁अर्थात्	-8.09286
ब	-8.09459
१९	-8.0954
▁राज	-8.09855
ैव	-8.10298
द्	-8.10562
▁काल	-8.10951
विषये	-8.11072
▁एते	-8.11474
▁सर्वे	-8.12237
▁इव	-8.12481
▁परि	-8.13273
▁of	-8.13996
▁सम	-8.14117
आ	-8.14194
▁तथैव	-8.14699
तां	-8.14821
▁प्राचीन	-8.15397
तो	-8.15574
▁कृतम्	-8.15661
रूप	-8.15981
▁का	-8.1609
देव	-8.16103
पुर	-8.16296
▁मे	-8.16817
तायाः	-8.16982
▁राम	-8.17058
▁५	-8.17448
▁भवेत्	-8.17621
▁मा	-8.17715
▁उच्यते	-8.17842
▁वेद	-8.18158
▁ब्रह्म	-8.1833
नं	-8.18387
वती	-8.18406
्यते	-8.18998
▁के	-8.19002
▁व	-8.19046
रि	-8.19191
तमे	-8.19236
ोप	-8.19298
२	-8.19408
धर्म	-8.20712
ष	-8.20946
कार	-8.2097
यः	-8.21544
▁यस्य	-8.21577
यन्ति	-8.21609
नी	-8.21613
),	-8.21908
द्वारा	-8.21953
▁ए	-8.22045
ट्	-8.22371
▁प्रायः	-8.22695
▁चेत्	-8.22702
▁श	-8.22804
ने	-8.2283
▁मुख्य	-8.23018
▁इत्यनेन	-8.2336
▁उपरि	-8.23882
▁पर	-8.23896
िः	-8.24068
▁अनन्तरं	-8.2489
▁====	-8.2501
▁प्राप्तवान्	-8.25188
▁६	-8.25267
▁भाव	-8.25618
▁तद्	-8.25945
▁दिनाङ्के	-8.26269
▁एत	-8.2635
▁लघु	-8.26424
नगरस्य	-8.2658
▁ग	-8.26685
▁मण्डले	-8.27273
▁[(	-8.27698
३	-8.27754
▁य	-8.27962
वत्	-8.28375
▁जल	-8.29739
ाद्	-8.29974
▁एकं	-8.30018
▁भारते	-8.30428
कर	-8.30571
भाव	-8.30761
सं	-8.31014
▁मम	-8.31142
▁तं	-8.31311
▁उत्तर	-8.31405
ान	-8.31423
▁शब्द	-8.31887
▁संस्कृत	-8.32071
ख	-8.32145
▁कथ्यते	-8.32187
ऽ	-8.32194
▁कार्य	-8.32507
▁कश्चन	-8.32583
▁इत्यादयः	-8.32618
राज्यस्य	-8.3263
▁अर्थः	-8.3302
ेऽपि	-8.33097
▁मन्यते	-8.33156
▁शक्नोति	-8.33473
▁विविध	-8.33785
०	-8.33801
▁कृतः	-8.34195
▁श्लोकः	-8.34356
▁केचन	-8.34464
कर्म	-8.34596
▁अस्याः	-8.3537
▁लोक	-8.35427
भ्यः	-8.36239
▁ज	-8.3638
▁भारतम्	-8.36577
त्वात्	-8.3713
ज्ञान	-8.37233
▁जातः	-8.3746
▁इतिहासः	-8.37463
▁शिव	-8.37483
▁नाम्ना	-8.37526
सी	-8.37702
▁अत	-8.37806
ेति	-8.38151
कः	-8.38171
जन	-8.38218
१०	-8.38291
▁रस	-8.38523
मण्डलस्य	-8.38566
▁तद	-8.38968
त्र	-8.3907
▁मूल	-8.39296
y	-8.39634
▁काले	-8.39748
▁१०	-8.3985
काल	-8.39935
श्रीमद्भगवद्गीता	-8.40221
नगरं	-8.40266
भाषा	-8.40335
ाद	-8.40412
▁भारत	-8.40433
▁!	-8.40618
%	-8.40766
▁यद्	-8.41247
▁सामान्य	-8.41475
▁ब	-8.41687
ात्मक	-8.42156
al	-8.43044
▁भगवान्	-8.43068
जी	-8.4309
थ	-8.4316
यितुं	-8.43289
▁भगवतः	-8.43621
ायाः	-8.43847
पर	-8.44169
▁ह	-8.44191
विशेष	-8.44206
मासस्य	-8.44255
▁यद्यपि	-8.44377
पर्यन्तं	-8.44517
▁अहं	-8.44664
▁प्राप्यते	-8.44848
▁यतः	-8.44853
▁विशेष	-8.44873
स्व	-8.45001
मु	-8.45041
मान	-8.45076
पद	-8.45256
▁अतीव	-8.45368
श्	-8.4567
न्ते	-8.45695
▁इत्य	-8.45697
▁पाद	-8.45859
पाद	-8.45956
स्थ	-8.46256
▁विभिन्न	-8.46378
e	-8.46406
▁आत्म	-8.46439
▁जीव	-8.46577
▁नव	-8.4676
▁स्यात्	-8.46927
▁कथं	-8.47035
ली	-8.47061
▁कथा	-8.47139
▁भाषा	-8.47653
▁आङ्ग्ल	-8.48029
▁इय	-8.4833
▁काव्य	-8.48367
ड्	-8.48431
▁इ	-8.49054
दृष्ट्या	-8.49195
▁शरीरस्य	-8.49578
▁दक्षिण	-8.49717
▁१२	-8.49835
▁क्रियते	-8.49955
देश	-8.50012
ऽपि	-8.50068
▁किञ्चन	-8.50072
को	-8.50194
▁जन	-8.50276
▁विश्व	-8.50425
ेश्वर	-8.50774
▁’	-8.50841
▁किं	-8.51006
▁अनु	-8.51032
भूत	-8.51087
▁द्वितीय	-8.51407
▁ई	-8.51454
...	-8.51502
;	-8.51713
स्त	-8.52091
▁एतेषां	-8.52113
▁सति	-8.52369
▁७	-8.52611
▁भविष्यति	-8.52731
ोऽस्ति	-8.52808
▁८	-8.52812
▁उ	-8.52928
्याः	-8.5297
▁वर्षस्य	-8.53139
देशस्य	-8.53192
मिदं	-8.53321
▁पद	-8.53348
▁सन्	-8.53363
०७	-8.53748
▁दूरे	-8.53766
ापि	-8.5434
यत्	-8.54708
▁विषय	-8.54775
▁कृत	-8.54898
ू	-8.55358
▁दृष्ट्वा	-8.5571
▁द	-8.5583
▁कृष्ण	-8.55911
▁बहवः	-8.56794
▁तानि	-8.5684
▁पूर्वं	-8.56971
▁काम	-8.57084
▁१५	-8.57174
५	-8.5718
▁विचार	-8.57254
▁जायते	-8.5727
वन्तः	-8.57427
गुण	-8.57483
▁बाल	-8.57647
डि	-8.57849
▁अत्यन्त	-8.57911
▁प्रमुख	-8.57951
▁देश	-8.58187
ाश्च	-8.58265
▁•	-8.58272
नु	-8.583
n	-8.58375
▁कृता	-8.58769
दा	-8.58781
▁सप्त	-8.58827
▁गुण	-8.58914
इ	-8.58933
मि	-8.59039
ाव	-8.59052
उ	-8.59067
गत	-8.59158
भ	-8.59173
क्षेत्रे	-8.59295
▁इत्यादि	-8.59878
▁समीपे	-8.59933
▁फल	-8.6006
▁ज्ञायते	-8.60208
कि	-8.60242
ष्ट	-8.60453
कृत	-8.60503
तर	-8.607
ये	-8.60727
▁समये	-8.60734
▁परं	-8.60758
▁मनः	-8.60789
िता	-8.61017
▁१७	-8.61024
▁अनेक	-8.61106
ानु	-8.61156
▁कु	-8.61284
▁अति	-8.61435
i	-8.61571
)]	-8.61924
▁+	-8.61977
▁वयं	-8.6207
▁यतो	-8.62488
रो	-8.62511
ाङ्ग	-8.63019
ानन्तरं	-8.63074
लि	-8.63228
▁जनसङ्ख्या	-8.63731
▁त्रि	-8.63952
यन्	-8.63961
भि	-8.63978
▁१६	-8.63988
▁यज्ञ	-8.64219
▁पिता	-8.64326
▁सिद्ध	-8.64583
ग्रन्थ	-8.64644
त्य	-8.64667
४	-8.64738
कं	-8.65176
▁रचना	-8.65213
भेद	-8.65373
१२	-8.65545
▁गुरु	-8.65759
ए	-8.65767
के	-8.65815
प्	-8.65873
वर	-8.66318
▁किमपि	-8.66326
▁ग्रन्थ	-8.66363
ैक	-8.66383
▁को	-8.66468
▁शक्नुवन्ति	-8.66598
▁स्थितम्	-8.66802
▁९	-8.6686
▁स्तः	-8.66934
▁सङ्गीत	-8.67131
▁गो	-8.67134
नाम	-8.67399
िनः	-8.67785
२०	-8.67861
▁ना	-8.68137
▁साहाय्यं	-8.68234
▁परम	-8.68337
▁मानव	-8.68409
वर्ण	-8.68454
▁प्रसिद्धः	-8.68686
▁तः	-8.68858
पूर्व	-8.68875
▁अर्थ	-8.69464
रस	-8.69502
▁तमस्य	-8.69556
दि	-8.69814
ळ	-8.70031
▁भवतः	-8.7005
ाऽ	-8.70348
जा	-8.7068
▁सर्वत्र	-8.70869
णा	-8.71
▁दश	-8.71375
ई	-8.71422
ध	-8.71622
▁कारणेन	-8.71636
▁चित्र	-8.71855
वे	-8.72323
त्वम्	-8.72362
रु	-8.72416
राम	-8.72498
ाणाम्	-8.72832
▁सि	-8.72963
▁कोऽपि	-8.73096
▁सर्वेषां	-8.73185
▁अधिक	-8.73275
▁वर्ण	-8.73538
▁आधुनिक	-8.73683
▁कर	-8.73888
विषय	-8.7389
▁ख	-8.73926
▁पुत्र	-8.74006
योग	-8.74139
▁ब्राह्मण	-8.74156
मे	-8.74204
शास्त्र	-8.74378
▁कुर्वन्	-8.74519
▁प्रत्यक्ष	-8.74591
▁अव	-8.74708
▁सामाजिक	-8.74874
ण्ड	-8.75109
▁विना	-8.7523
यित्वा	-8.75279
ानुसारं	-8.75543
▁अग्रे	-8.7575
▁वै	-8.75824
्वा	-8.75835
▁११	-8.75908
▁र	-8.75948
▁पूर्ण	-8.7642
रे	-8.76485
▁ओ	-8.76577
देशे	-8.76829
▁भूत्वा	-8.76884
ितः	-8.7689
▁पुरुष	-8.77007
ङ्क	-8.77023
▁राज्य	-8.77079
▁विशिष्ट	-8.77101
▁प्राप्य	-8.77235
▁ज्ञानं	-8.77343
▁अन	-8.77716
▁ध्यानं	-8.77725
▁सूर्य	-8.7792
याम्	-8.78011
r	-8.78024
न्य	-8.78068
ादीनां	-8.78285
▁भागः	-8.78347
▁कला	-8.78451
▁and	-8.78536
▁प्राप्तुं	-8.78564
वेद	-8.7865
०००	-8.78841
ितवान्	-8.78961
▁नैव	-8.79003
भाग	-8.79021
▁प्रसिद्ध	-8.79536
▁धन	-8.79563
न्न	-8.79597
▁तस्मात्	-8.80614
▁वस्तु	-8.80814
प्रदेशे	-8.81006
▁न्याय	-8.81076
▁जीवन	-8.81217
–	-8.81285
▁किञ्चित्	-8.81346
▁शारीरिक	-8.81677
▁अधिकं	-8.81781
▁अन्तः	-8.81828
▁भू	-8.81842
सार	-8.82194
▁अस्माकं	-8.82315
▁अभि	-8.82523
▁नूतन	-8.82543
▁इत्यादीनि	-8.82623
ले	-8.82757
▁शिक्षा	-8.82941
▁मु	-8.82985
मण्डलं	-8.8299
र्थ	-8.83068
▁अन्यतमम्	-8.83179
]	-8.83528
समये	-8.83583
▁अभवन्	-8.83585
▁मण्डलम्	-8.83868
▁१३	-8.84208
स्वरूप	-8.84217
ग्	-8.84324
▁इत्यत्र	-8.84426
▁इत्यपि	-8.84432
ेऽ	-8.84566
ती	-8.84592
पा	-8.84695
व्यवस्था	-8.8471
वाद	-8.84836
नम्	-8.84972
लोक	-8.84976
▁उपयोगः	-8.84981
०३	-8.84982
▁नित्य	-8.85128
▁वैदिक	-8.8516
व्य	-8.85372
▁शास्त्र	-8.85381
मूल	-8.85603
▁आचार्य	-8.85747
जल	-8.85864
▁अधः	-8.85906
▁मन्त्र	-8.85928
▁१४	-8.86007
▁एका	-8.86083
क्रम	-8.86203
हा	-8.86204
▁मानसिक	-8.86264
▁भव	-8.8639
▁प्रमाण	-8.86398
ोऽयं	-8.86506
मण्डले	-8.86698
▁हे	-8.86703
नगरम्	-8.86874
▁राज्यस्य	-8.86878
a	-8.86942
▁एतेन	-8.87005
▁आवश्यकता	-8.87009
शब्द	-8.8704
परि	-8.87141
सम	-8.87451
च्छ	-8.87479
S	-8.87489
▁चन्द्र	-8.87523
▁शरीर	-8.8755
यै	-8.87928
▁दृश्यन्ते	-8.87976
बा	-8.88187
▁स्थाने	-8.88383
▁भगवद्गीता	-8.88955
▁माता	-8.89074
हि	-8.89347
▁पुत्रः	-8.89616
क्ष	-8.8963
विद्या	-8.89655
▁राजधानी	-8.89695
क्रिया	-8.89753
नो	-8.89883
▁द्वौ	-8.89979
११	-8.90068
▁ल	-8.90166
▁प्रकाश	-8.90372
से	-8.90395
कुल	-8.90679
ानन्द	-8.90744
काः	-8.90768
▁सत्य	-8.90857
जनाः	-8.91068
महा	-8.91096
▁प्रधान	-8.91312
▁ध्यान	-8.91313
▁नगरं	-8.9132
▁क्रिया	-8.91348
िनी	-8.91551
▁भ	-8.91577
▁सम्बद्ध	-8.91679
▁नगरस्य	-8.91729
▁देशस्य	-8.91856
फल	-8.91973
c	-8.91993
▁समान	-8.92216
०४	-8.92252
बल	-8.92453
▁वर्ष	-8.92612
▁अष्ट	-8.92626
▁जाता	-8.92662
▁यस्मिन्	-8.92893
▁केन्द्रम्	-8.92899
in	-8.93002
▁एतादृश	-8.93154
▁सम्यक्	-8.93179
▁अथ	-8.93194
मन	-8.93265
चन्द्र	-8.93533
ायां	-8.93695
६	-8.93711
ार	-8.93837
कथा	-8.93902
▁स्थितः	-8.94133
ान्तर	-8.94182
▁अपर	-8.9422
▁जय	-8.94287
▁S	-8.94368
▁सुख	-8.9443
▁दिने	-8.94556
दर्शन	-8.94657
d	-8.94972
ेव	-8.95223
▁बुद्धि	-8.953
|	-8.95538
ीनां	-8.95684
▁जनानां	-8.95706
मासीत्	-8.95724
तम	-8.95853
नाथ	-8.96119
कार्य	-8.9633
ाचार्य	-8.96336
▁युद्ध	-8.96404
▁क्रीडा	-8.96474
▁प्राण	-8.96605
▁गत्वा	-8.96982
८	-8.97178
▁विवाह	-8.97211
घ	-8.97297
▁बि	-8.97601
▁राष्ट्रिय	-8.97856
▁नगरे	-8.97944
▁रूप	-8.9813
वी	-8.98256
▁स्थानं	-8.98844
लु	-8.98969
▁तदनन्तरं	-8.99125
▁भिन्न	-8.99138
▁प्राप्नोति	-8.99141
=	-8.99247
▁कथयति	-8.99335
▁२०११	-8.99559
▁कथ	-8.99565
नदी	-8.99583
'-	-8.99594
मत	-8.99695
▁सूत्र	-8.99937
वन	-8.99963
मुख	-9.00024
▁विज्ञानम्	-9.00262
▁प्राप्यन्ते	-9.00275
टि	-9.00295
▁तादृश	-9.00428
▁दुःख	-9.00445
▁ग्रन्थः	-9.00467
धर	-9.00523
▁मनसि	-9.00538
▁विद्या	-9.00714
ानाम	-9.00786
▁२०	-9.00839
▁अन्वयः	-9.00849
A	-9.00905
▁भवितुम्	-9.00933
▁सर्वदा	-9.00949
युक्त	-9.01075
हर	-9.01278
ar	-9.01388
मय	-9.01484
गण	-9.0153
१८	-9.01537
▁पि	-9.0159
सर	-9.01617
▁द्वादश	-9.01647
दान	-9.0169
ज्	-9.01876
मात्र	-9.01914
की	-9.02211
▁साहित्य	-9.02312
t	-9.0241
▁रामानुजाचार्यः	-9.0244
▁हस्त	-9.0245
▁वदन्ति	-9.02549
मन्दिरं	-9.02559
▁वीर	-9.02564
▁अन्ते	-9.02591
▁प्राप्त	-9.02595
▁मध्य	-9.02642
रेव	-9.02707
सूत्र	-9.02769
ार्थम्	-9.02842
▁शङ्कराचार्यः	-9.02906
▁गच्छति	-9.03092
ादयः	-9.03117
▁शब्दार्थः	-9.03171
▁आध्यात्मिक	-9.03187
▁कुर्वन्तु	-9.03203
▁वर्णनं	-9.0343
०५	-9.03477
▁आनन्द	-9.03494
▁विजय	-9.03643
ैर्	-9.03671
▁निर्	-9.03709
्यः	-9.03745
▁अन्तर्भवति	-9.03817
नगर	-9.03948
टी	-9.04013
▁तृतीय	-9.04042
▁अन्तिम	-9.04044
मन्दिरम्	-9.04226
▁शरीरं	-9.04428
तत्त्व	-9.04684
▁स्वयं	-9.04697
द्वयं	-9.04741
▁पदच्छेदः	-9.0481
▁पश्चात्	-9.04838
▁निर्माणं	-9.05097
यु	-9.0527
▁व्याख्या	-9.05338
कला	-9.05452
▁एकस्मिन्	-9.05515
संस्कृत	-9.05619
ाभ्यां	-9.0563
▁मण्डल	-9.05984
▁बहूनि	-9.0599
▁वदति	-9.06016
▁जातम्	-9.06018
▁श्लोक	-9.06064
▁प्रथमं	-9.06193
्यां	-9.06202
१५	-9.06209
▁कृतवन्तः	-9.06275
▁ता	-9.06307
▁समग्र	-9.06318
वर्ष	-9.0632
▁से	-9.06368
▁द्वि	-9.06422
▁अन्ये	-9.06448
C	-9.06525
▁यद	-9.06591
▁गृह	-9.06625
▁भाग	-9.06659
७	-9.06735
ग्रह	-9.0692
ुं	-9.07019
गो	-9.07119
▁बहिः	-9.07204
पाल	-9.07278
▁प्रभाव	-9.07397
िताः	-9.07531
▁प्रभावः	-9.07607
▁तयो	-9.07749
ेत	-9.07763
?	-9.07867
न्त	-9.07907
स्ति	-9.07975
ेत्	-9.08349
कारः	-9.08408
जि	-9.08482
▁डा	-9.0851
प्रति	-9.08541
er	-9.08632
रुप	-9.08659
▁बल	-9.08903
▁खलु	-9.0892
ैर	-9.09013
ेऽस्मिन्	-9.09055
र्य	-9.09086
▁प्रसिद्धम्	-9.09274
▁B	-9.09561
▁उन्नत	-9.09709
▁नगर	-9.09786
le	-9.0988
जन्य	-9.09903
वाक्य	-9.09963
न्तु	-9.10015
मुप	-9.10173
पूर्ण	-9.10204
▁2.	-9.10463
▁हिन्दु	-9.10538
▁सूक्ष्म	-9.10545
कु	-9.10616
▁वर्तमान	-9.10637
▁तत्त्व	-9.10645
▁अङ्ग	-9.10696
▁A	-9.10728
नगरात्	-9.10782
▁दूर	-9.11379
श्री	-9.11554
▁जैन	-9.11619
काम	-9.11661
▁स्थितं	-9.11688
धि	-9.1182
०९	-9.11838
▁किञ्च	-9.1189
धा	-9.12034
▁मी	-9.12163
▁नदी	-9.12164
▁नगरम्	-9.12166
वृत्ति	-9.12264
▁इत्यादीनां	-9.12285
▁रक्त	-9.12361
डा	-9.12381
यं	-9.125
ितं	-9.12564
▁कर्णाटकस्य	-9.12637
ताम्	-9.12642
▁प्रकारेण	-9.12716
▁उल्लेखः	-9.12851
ङ्	-9.1293
कम्	-9.13067
मो	-9.13103
▁परितः	-9.13191
▁बा	-9.13205
▁राज्ये	-9.13239
शत	-9.1325
्यं	-9.13331
ाङ्क	-9.13334
k	-9.13478
▁मुद्रा	-9.13486
▁कारण	-9.13489
ोत्तर	-9.13612
▁सिद्धान्त	-9.13643
मनु	-9.13671
ाप	-9.13706
▁स्वर	-9.13737
शक्ति	-9.13862
श्व	-9.13924
▁पश्चिम	-9.1405
▁गीत	-9.14108
▁in	-9.14179
ोक्त	-9.14223
▁पा	-9.1425
▁वर्धते	-9.1445
प्रत्यय	-9.1452
h	-9.1456
टा	-9.14619
ed	-9.14641
▁मुख	-9.14922
फ	-9.14929
करण	-9.14968
▁पर्यन्तं	-9.15054
मुद्रा	-9.15091
▁विशेषतः	-9.15137
लिङ्ग	-9.15224
ान्य	-9.15261
▁कदाचित्	-9.15358
चित्र	-9.15415
ितुं	-9.15501
▁विज्ञान	-9.1554
▁भूत	-9.15542
काव्य	-9.15625
ing	-9.15693
▁आदि	-9.15713
',	-9.15802
▁चक्र	-9.15838
▁स्थित	-9.15972
ांश	-9.15979
▁मि	-9.16172
कस्य	-9.16222
ाभि	-9.16325
▁मत	-9.16386
▁देहली	-9.16434
▁ददाति	-9.16475
▁श्रुत्वा	-9.16486
ष्ठ	-9.16507
▁स्थापना	-9.16602
▁पक्ष	-9.16625
▁समा	-9.16647
ओ	-9.16772
▁२००८	-9.16808
युक्तः	-9.16826
▁दण्ड	-9.16827
व्यापार	-9.16848
▁एतानि	-9.17103
मिव	-9.17123
P	-9.17276
पुरुष	-9.17318
▁टीका	-9.17438
an	-9.17448
सम्बन्ध	-9.17466
क्रीडा	-9.17717
▁येषां	-9.17805
▁अवदत्	-9.1783
विज्ञान	-9.17905
मार्ग	-9.18007
▁केन्द्र	-9.18028
▁अयम्	-9.18096
▁गण	-9.18143
▁तिष्ठति	-9.18173
▁सम्पूर्ण	-9.1822
चक्र	-9.18309
▁अनेके	-9.1831
▁उत्तम	-9.18387
▁पुष्प	-9.18422
ितम्	-9.18431
▁उच्च	-9.18877
विचार	-9.1888
▁भगवद्गीताया	-9.18991
▁श्रेष्ठ	-9.1909
▁सर्वं	-9.19166
णि	-9.19174
▁शरीरे	-9.19198
▁इत्येत	-9.19357
▁अप	-9.19412
द्य	-9.19628
▁3.	-9.19649
▁मन्यन्ते	-9.1972
▁तस्मै	-9.19731
▁स्मृति	-9.1985
▁कवि	-9.19899
साधन	-9.19996
▁व्याकरण	-9.20057
गा	-9.2007
णां	-9.20103
▁स्त्री	-9.20182
ात्म	-9.20206
साहित्य	-9.20221
▁शत	-9.20278
प्प	-9.20297
▁उपमण्डलानि	-9.20354
मास	-9.20484
ेन्द्र	-9.20547
▁नासीत्	-9.20561
लक्षण	-9.20587
भव	-9.20734
▁तां	-9.20798
▁स्पष्ट	-9.20809
▁कर्ण	-9.2089
िना	-9.21054
रण	-9.21078
नाम्ना	-9.2109
ामि	-9.211
▁वन	-9.21157
or	-9.21175
१३	-9.21254
प्रकाश	-9.21292
प्रयोग	-9.21305
▁धार्मिक	-9.21319
▁आर्थिक	-9.21362
डी	-9.21433
▁२०१४	-9.21481
▁P	-9.21482
पु	-9.21511
मन्त्र	-9.21609
सम्बद्ध	-9.21745
▁वित्तीय	-9.21768
o	-9.21872
▁वायु	-9.21978
स्थान	-9.22009
▁पाप	-9.22114
▁तावत्	-9.2226
▁1.	-9.22331
०२	-9.22337
▁मनो	-9.22337
ाल	-9.22374
म्ब	-9.22442
▁द्वे	-9.22463
ादेव	-9.22548
▁अल्प	-9.22601
्यन्ते	-9.22605
▁एवमेव	-9.22687
▁अस्थि	-9.22934
▁मनोवैज्ञानिक	-9.22952
▁नहि	-9.22974
वार	-9.23047
▁M	-9.23049
द्वय	-9.23089
चर	-9.23128
सिद्धान्त	-9.23156
देवी	-9.23219
०८	-9.23282
▁राष्ट्र	-9.23314
▁सिंह	-9.23336
▁ऐ	-9.23344
नद्याः	-9.23358
▁वे	-9.23403
▁पुराण	-9.23493
हार	-9.2353
▁प्रा	-9.23609
िन	-9.23698
E	-9.23714
वृत्त	-9.23721
▁राज्ञः	-9.23809
▁शान्त	-9.23869
▁मह	-9.23948
▁वैज्ञानिक	-9.23956
—	-9.23971
▁महान्	-9.24086
▁उत	-9.24112
९	-9.24263
त्वे	-9.24309
▁तव	-9.24313
u	-9.24369
▁शिष्य	-9.24388
▁अन्ताराष्ट्रिय	-9.24389
▁गत	-9.24471
▁सर्वाणि	-9.24545
▁तान्	-9.24572
धन	-9.24626
▁क्रमेण	-9.24709
▁व्यवहार	-9.24728
प्रदेशस्य	-9.24738
w	-9.24747
चि	-9.25029
▁निर्मितः	-9.25086
शिक्षा	-9.25151
▁प्रथमः	-9.25189
१७	-9.25382
▁व्यापार	-9.25427
ल्ल	-9.25654
▁अर्हति	-9.25709
▁उपयुज्यते	-9.2571
▁प्रयोग	-9.25727
रीत्या	-9.25784
▁भाष्य	-9.25796
विजय	-9.25912
▁घट	-9.25948
▁प्रकृति	-9.2596
१६	-9.25999
स्मिन्	-9.2602
▁[	-9.26065
कालः	-9.26073
वस्तु	-9.26133
▁स्वातन्त्र्य	-9.26156
▁परस्परं	-9.26187
रूपं	-9.2627
▁नियम	-9.26311
▁विषयः	-9.26419
▁ग्रन्थे	-9.26563
▁भौगोलिक	-9.2657
▁डॉ	-9.26668
प्य	-9.26704
ra	-9.26755
राज्ये	-9.26833
▁मते	-9.26836
बोध	-9.26877
▁प्रत्येकं	-9.27032
▁अन्यतमः	-9.27053
ठ	-9.27154
▁कारणात्	-9.27281
▁मया	-9.27311
▁क्षेत्र	-9.27411
▁चिन्ता	-9.27451
ङ	-9.27512
▁वर	-9.27522
▁कर्तुम्	-9.27587
पक्ष	-9.27671
▁अभ्यास	-9.27739
खण्ड	-9.27739
▁संस्कार	-9.27743
▁सांस्कृतिक	-9.27867
us	-9.27897
ाद्य	-9.27908
शा	-9.27922
▁शुद्ध	-9.27938
▁इन्द्र	-9.28107
▁ह्य	-9.28132
▁उद्धरणम्	-9.2826
▁विशाल	-9.28282
▁परिणाम	-9.28366
▁व्यवस्था	-9.28535
▁कतिपय	-9.29018
▁तौ	-9.29161
▁आधारेण	-9.29247
शि	-9.29528
पाठ	-9.29575
०१	-9.29694
▁कृषि	-9.29723
▁चतुर्दश	-9.2974
च्	-9.29757
दत्त	-9.29855
▁दिव्य	-9.30144
वै	-9.30269
स्यैव	-9.30323
▁पत्नी	-9.3033
▁दोष	-9.30348
▁वीक्षणीयस्थलानि	-9.30363
▁रो	-9.30408
शील	-9.30454
▁अध्ययनं	-9.30486
सम्	-9.30524
▁विष्णु	-9.3059
▁तम	-9.30663
०६	-9.30689
▁चेति	-9.30794
▁देवी	-9.30831
३०	-9.30845
बन्ध	-9.31005
▁यो	-9.31027
▁त्वं	-9.31042
१४	-9.3111
नगराय	-9.31192
▁मन्दिरस्य	-9.31261
ान्त	-9.3135
▁गच्छन्ति	-9.31357
ीया	-9.31404
▁चिकित्सा	-9.31474
वद	-9.31478
ञ्ज	-9.31527
▁त्व	-9.31555
ावस्था	-9.31673
▁जलं	-9.31694
▁चतुर्थ	-9.31711
▁अर्जुन	-9.31743
दोष	-9.31921
लो	-9.32059
▁त्यक्त्वा	-9.32066
ज्ञ	-9.32449
ादिषु	-9.32475
िया	-9.32478
▁पृथक्	-9.32536
कल	-9.32563
▁कदापि	-9.32743
▁पार	-9.32754
▁प्रश्न	-9.32784
▁भवान्	-9.32788
णी	-9.32873
▁भेद	-9.3293
▁अग्नि	-9.32978
▁इत्येव	-9.33222
सर्व	-9.33246
कार्यं	-9.33297
▁ऐतिहासिक	-9.33313
च्च	-9.33358
▁ग्राम	-9.33367
ब्रह्म	-9.33379
▁इत्येषः	-9.33384
▁प्रिय	-9.33455
ासु	-9.33593
ावसरे	-9.33621
▁स्वरूप	-9.33667
▁रा	-9.33784
▁इच्छा	-9.33865
▁हृदय	-9.33929
ोपरि	-9.34045
▁तदेव	-9.34062
ास्ति	-9.34151
भू	-9.34342
नाम्	-9.34394
▁सम्बन्ध	-9.34432
▁मित्र	-9.34458
नियम	-9.34564
p	-9.34588
▁घोरी	-9.34596
सौ	-9.348
▁शिला	-9.34805
▁मार्ग	-9.34851
▁आत्मा	-9.34955
▁माध्यमेन	-9.34959
es	-9.35028
शी	-9.35036
त्रय	-9.35044
▁संख्या	-9.35081
T	-9.35147
शरीर	-9.35294
दी	-9.35327
ुर	-9.35329
M	-9.3534
राज्य	-9.35469
▁इत्यादिषु	-9.35526
रिति	-9.35532
▁पाठ	-9.35579
▁जे	-9.35623
तन्त्र	-9.35679
▁स्थितिः	-9.35821
क्रि	-9.35852
सिद्ध	-9.35861
▁by	-9.35862
▁तत्रैव	-9.35882
▁प्रत्य	-9.35907
▁हो	-9.35912
▁विश्वस्य	-9.35932
दल	-9.3606
वास	-9.36189
▁कार्याणि	-9.36289
▁२००१	-9.36334
▁अस्मि	-9.36445
भागे	-9.36478
मण्डल	-9.36527
पूर्वकं	-9.36547
स्थित	-9.36584
▁कुल	-9.3662
रत्न	-9.36634
▁अनुभव	-9.36641
▁पर्वत	-9.36705
▁एकस्य	-9.36741
▁सर्वथा	-9.36823
▁पदार्थ	-9.36842
पात	-9.3692
नेन	-9.36935
▁संस्थायाः	-9.36957
▁नृत्य	-9.37048
▁मनुष्य	-9.37055
▁मोक्ष	-9.37059
▁इन्द्रिय	-9.37081
बे	-9.3711
▁संस्था	-9.37119
▁समुद्र	-9.37156
▁दृढ	-9.37213
नः	-9.37246
स्थाने	-9.37289
▁विस्तारः	-9.37374
पुत्र	-9.37382
▁षड्	-9.37393
ॉ	-9.37604
▁.	-9.37923
▁कल्प	-9.37928
▁निरन्तर	-9.37931
▁स्वतन्त्र	-9.37952
गु	-9.38101
पदार्थ	-9.38172
▁एकादश	-9.38188
▁तया	-9.38244
▁पुरुषः	-9.3843
”,	-9.38444
नस्य	-9.38485
▁व्यक्तित्व	-9.38497
व्यवहार	-9.38518
▁नामानि	-9.38538
on	-9.38648
स्यापि	-9.38662
भिन्न	-9.38684
▁आर्	-9.38715
विषयक	-9.38745
दास	-9.3885
नीय	-9.38965
▁C	-9.3902
re	-9.39021
▁कालः	-9.39043
सन	-9.39043
▁खण्ड	-9.39116
दु	-9.39143
िय	-9.3916
▁बौद्ध	-9.39345
▁सम्	-9.39365
जीव	-9.39416
▁शक्ति	-9.39627
रोग	-9.39736
दिन	-9.3984
▁मां	-9.39848
▁सम्भवति	-9.39856
ic	-9.39875
▁देह	-9.3991
▁ईश्वर	-9.39949
▁विद्यमान	-9.3999
भाषायां	-9.40052
▁जीवनस्य	-9.40092
▁वाक्य	-9.40095
वचन	-9.4017
▁व्यक्तिः	-9.40218
▁जा	-9.40246
न्द	-9.4034
▁अपेक्षया	-9.40356
▁दुर्	-9.4041
▁योजना	-9.40552
▁सर्वेषु	-9.40604
ृ	-9.40667
▁कारणं	-9.40716
तीति	-9.40811
▁गतवान्	-9.40822
▁सङ्ख्या	-9.40909
हे	-9.4091
ज्ञानं	-9.40947
मध्ये	-9.40956
भ्य	-9.40972
यते	-9.41002
▁समय	-9.41034
बि	-9.41201
▁पितुः	-9.41238
▁प्रेम	-9.4135
▁इत्यस्मिन्	-9.41387
▁निर	-9.41547
२५	-9.41584
D	-9.41669
▁सन्दर्भाः	-9.41679
▁T	-9.417
▁आरम्भ	-9.4171
णं	-9.41735
गढ	-9.41744
▁चैतन्य	-9.41793
▁दृश्य	-9.4192
मध्य	-9.41946
▁अधिकवाचनाय	-9.41954
▁सेवा	-9.42043
▁पण्डित	-9.42175
▁श्रूयते	-9.42198
▁ग्रन्थस्य	-9.42361
द्ध	-9.42413
▁श्रुत	-9.42461
▁ध	-9.42641
ज्ज	-9.42646
▁विधि	-9.42681
हिन्दी	-9.42714
▁पञ्चम	-9.42732
▁दर्शन	-9.42776
▁निर्देश	-9.42863
▁बाह्यानुबन्ध	-9.42931
▁प्रस्तुत	-9.4294
सो	-9.42976
प्रधान	-9.42985
▁मुम्बई	-9.43047
मेक	-9.43209
th	-9.43231
यान	-9.43263
ीयः	-9.43285
विधि	-9.43427
▁हरि	-9.43473
मह	-9.43486
ानुभव	-9.43553
▁पुरा	-9.43557
▁व्य	-9.43597
▁नाग	-9.43624
▁आन्तरिक	-9.4368
ेय	-9.43701
▁विस्तृत	-9.43707
▁एवम्	-9.43879
▁पद्य	-9.43904
▁कुरु	-9.43954
▁तन्	-9.43956
▁सुन्दर	-9.43967
सू	-9.44052
▁स्वप्न	-9.44117
▁स्वयमेव	-9.44198
प्रमाण	-9.44264
▁दान	-9.44311
ेनैव	-9.44335
en	-9.44478
▁नवीन	-9.44509
कृष्ण	-9.44547
▁हा	-9.44568
जात	-9.44633
B	-9.44666
ur	-9.44706
▁एकदा	-9.44765
▁राग	-9.44781
ाधिक	-9.44791
ाह	-9.44844
▁रे	-9.44864
▁कथयन्ति	-9.44941
▁भौतिक	-9.45032
▁भक्ति	-9.45105
▁दीर्घ	-9.45108
▁कल्पना	-9.45198
भा	-9.45257
at	-9.45313
कारण	-9.45319
▁प्रतिमा	-9.45339
स्थानम्	-9.45552
▁३०	-9.45599
▁द्वयोः	-9.45614
▁२०१२	-9.45677
ीकृत्य	-9.45707
▁गृहे	-9.45867
प्रदेश	-9.45867
रपि	-9.45879
िणः	-9.46044
बी	-9.46051
N	-9.46152
नव	-9.46155
वः	-9.46162
जन्म	-9.46168
त्रि	-9.46212
▁लक्षण	-9.46221
प्रसाद	-9.46255
षा	-9.46461
▁कर्णाटक	-9.46494
कुमार	-9.46508
स्थानं	-9.4651
▁अपितु	-9.4658
ाध्याय	-9.46583
र्व	-9.46586
▁करणीयम्	-9.46605
▁विद्यन्ते	-9.46668
▁की	-9.46758
▁अधुना	-9.46806
ग्रामे	-9.47051
▁त्रयः	-9.47087
▁सरल	-9.47125
▁कन्नड	-9.47189
▁शासन	-9.47276
▁लभ्यते	-9.4736
▁ला	-9.47361
li	-9.47432
▁भा	-9.47434
स्तथा	-9.47441
सेवा	-9.47459
िन्	-9.47478
▁ज्ञात	-9.47539
▁वंश	-9.4754
ोदय	-9.47562
▁रूपक	-9.47587
ध्य	-9.47637
▁इदानीं	-9.4765
▁तैः	-9.47729
▁on	-9.47804
▁सम्प्रति	-9.47849
▁२०१६	-9.47949
तीर्थ	-9.48016
▁संतुलनं	-9.48084
▁प्राकृतिक	-9.48099
५०	-9.48126
ट्ट	-9.48167
▁दक्षिणे	-9.48241
यन्त्र	-9.48246
▁ग्रह	-9.48292
भट्ट	-9.48298
▁योग्य	-9.48304
▁रोग	-9.48342
भागः	-9.48411
▁उल्लेख	-9.48445
ेयं	-9.48576
▁वर्ग	-9.48625
पति	-9.48634
▁भवितुं	-9.48885
▁विहाय	-9.48967
▁गुजरातराज्यस्य	-9.48986
▁२०१०	-9.49004
▁जात	-9.49014
▁प्रचलति	-9.49237
▁न्यून	-9.49244
▁लाभ	-9.49332
▁पादौ	-9.49373
▁कार्यम्	-9.49409
▁गु	-9.49484
▁शान्ति	-9.49487
▁आरभ्य	-9.49572
▁जीवनं	-9.49575
सन्	-9.49576
स्त्व	-9.496
▁—	-9.49607
▁आहार	-9.49672
▁बुद्ध	-9.49698
▁नारायण	-9.49774
जय	-9.49818
शिव	-9.49869
पुराण	-9.49933
▁२५	-9.49971
विकास	-9.50059
▁संयुक्त	-9.50082
संस्कार	-9.5013
देशीय	-9.5014
▁कविः	-9.50156
▁आङ्ग्लानुवाद	-9.50226
युक्तं	-9.50241
▁षट्	-9.50286
प्रभाव	-9.50309
▁कश्चित्	-9.50311
ूर	-9.50398
l	-9.50438
R	-9.50485
▁भोग	-9.50507
▁महत्	-9.50533
▁बलं	-9.50559
▁पवित्र	-9.50603
ाऽस्ति	-9.50706
▁मुक्त	-9.50773
m	-9.50775
नारायण	-9.50801
▁दिन	-9.50806
▁आत्मनः	-9.50832
▁स्कन्ध	-9.50844
▁स्थान	-9.50933
▁एष	-9.50977
▁वर्तन्ते	-9.51071
ासीत्	-9.51129
ब्राह्मण	-9.51156
▁वृत्तिः	-9.51178
▁शिक्षण	-9.51227
▁चापि	-9.51266
भार	-9.51281
▁इच्छति	-9.51359
b	-9.51401
उप	-9.51421
▁गङ्गा	-9.51542
▁व्यक्तिस्य	-9.51547
▁कस्यचित्	-9.51596
र्न	-9.51607
▁एतस्मिन्	-9.51628
▁आगत्य	-9.51674
▁अनन्त	-9.51711
▁संसार	-9.51716
▁सोम	-9.51722
▁प्रयत्न	-9.51766
स्त्री	-9.51796
गल	-9.51799
▁परिवर्तनं	-9.51826
▁दत्त्वा	-9.51876
il	-9.5191
सिंह	-9.51914
▁भावः	-9.51919
▁एता	-9.52008
▁एस्	-9.52016
▁भावनात्मक	-9.52094
▁अत्रत्य	-9.52166
▁अकुर्वन्	-9.5219
▁सीता	-9.52218
व्रत	-9.5231
ब्	-9.52331
टो	-9.52347
विध	-9.52408
f	-9.52457
▁डि	-9.52491
▁गीता	-9.52577
▁छ	-9.52626
दश	-9.52635
ेर	-9.52657
▁प्रक्रिया	-9.52687
जनानां	-9.52707
▁उक्तवान्	-9.5271
▁इदम्	-9.5284
सः	-9.52878
▁भारतदेशे	-9.52938
दे	-9.52945
मल	-9.53011
▁पुरातन	-9.53051
▁सत्	-9.53061
▁मो	-9.53133
▁F	-9.53143
▁भक्त	-9.53213
▁२००७	-9.53242
▁मनुष्यः	-9.53284
शासन	-9.533
कस्यापि	-9.53309
तमः	-9.53337
▁बुद्धिः	-9.53339
निर्माण	-9.53352
▁पृष्ठ	-9.53413
गुरु	-9.53484
ात्मकं	-9.5349
रिया	-9.53612
▁यवन	-9.53617
▁अन्न	-9.53631
विधानसभाक्षेत्र	-9.53647
▁नाश	-9.53654
महोदय	-9.53659
मर	-9.53667
▁शा	-9.53686
▁चर्चा	-9.53732
▁इत्येतत्	-9.53838
त्वा	-9.53991
▁अमेरिका	-9.54025
▁१९	-9.54029
▁वर्धयति	-9.54035
ुः	-9.5405
▁शब्दः	-9.5408
हीन	-9.54104
▁विक्रम	-9.54161
▁इतिहास	-9.54272
▁वस्तुतः	-9.54372
▁प्रवेश	-9.54377
▁गा	-9.54389
मुक्त	-9.54406
वंश	-9.54421
▁उक्तं	-9.54442
▁अनेकाः	-9.54529
▁पूजा	-9.54552
▁स्थापयितुं	-9.54631
बाल	-9.54753
I	-9.54814
▁साधन	-9.54932
पे	-9.54984
▁आसन	-9.55009
▁वक्तुं	-9.55053
▁दातुं	-9.55131
▁दृष्ट	-9.55139
रङ्ग	-9.55164
▁निर्णय	-9.55264
▁ध्वनि	-9.55287
सहस्र	-9.55288
▁दत्तवान्	-9.55447
▁पुण्य	-9.55465
▁सी	-9.55482
▁वामन	-9.55522
▁व्यक्तिगत	-9.55534
is	-9.5558
▁एतद्	-9.5561
ाकार	-9.55637
▁मांसपेशी	-9.55655
▁नाटक	-9.55674
सुख	-9.55716
▁फ	-9.55722
ाना	-9.55775
▁प्रसिद्धा	-9.55797
सागर	-9.55885
▁गज	-9.55908
▁ज्ञात्वा	-9.55966
▁षोडश	-9.56022
लाभ	-9.56038
▁मन्दिरं	-9.56071
▁गन्तुं	-9.56083
ात्मा	-9.56165
▁प्रत्यय	-9.56216
▁मधुर	-9.56243
राज्यं	-9.56255
▁उपयोगं	-9.56293
प्रा	-9.56295
▁समूह	-9.5632
केन्द्र	-9.5642
▁वृत्ति	-9.56443
यज्ञ	-9.56509
▁सकल	-9.56545
लाल	-9.56553
यि	-9.5665
▁अर्ध	-9.56691
दर	-9.56741
▁चरण	-9.56783
g	-9.56846
▁सार	-9.56854
ch	-9.56899
क्र	-9.56914
▁सम्बन्धः	-9.56952
▁देशे	-9.57031
ेदं	-9.57067
रहित	-9.57178
ग्राम	-9.57208
▁गतः	-9.57479
▁वर्षाणि	-9.5753
▁राज्यम्	-9.57557
पी	-9.57589
ज्ञा	-9.57609
▁कल्याण	-9.57631
पुरम्	-9.57636
▁प्राप्नुवन्ति	-9.57645
▁तन्त्र	-9.57719
▁निर्मितम्	-9.57783
पर्यन्तम्	-9.57785
ग्रन्थेषु	-9.57823
झ	-9.57825
el	-9.57997
▁उद्योग	-9.58118
▁बोध	-9.58176
िभिः	-9.58286
चा	-9.58303
▁सम्बद्धम्	-9.58343
▁विस्तार	-9.58367
▁स्थूल	-9.5839
▁परा	-9.58395
यात्रा	-9.58475
▁दत्त	-9.5849
▁वृद्ध	-9.58509
र्ज	-9.58529
विशिष्ट	-9.58553
दण्ड	-9.58673
]]	-9.588
▁बृहत्	-9.58832
ात	-9.58875
▁नेत्र	-9.58886
शिला	-9.58892
▁वचन	-9.58961
जीवन	-9.58996
▁वात	-9.59018
▁यात्रा	-9.59033
▁अस्‍ति	-9.59056
▁शनैः	-9.59058
▁भागं	-9.59141
▁असम	-9.59144
निर्	-9.59169
स्वामी	-9.5927
योर्	-9.59309
श्चेति	-9.59362
योर	-9.59404
यन	-9.59419
▁विवेक	-9.59464
भाष्य	-9.59493
देवालयः	-9.59513
रचना	-9.59542
▁प्रसिद्धाः	-9.59572
▁प्राप्नोत्	-9.59632
▁प्रयोगः	-9.59734
न्याय	-9.59741
▁अष्टादश	-9.59776
▁भार	-9.59779
२६	-9.5984
▁इत्यर्थः	-9.59888
▁मार्गः	-9.60025
v	-9.60032
▁पी	-9.60076
▁महत्त्वं	-9.60118
ालङ्कार	-9.60178
▁आस्ताम्	-9.60211
▁उत्सव	-9.60238
मित्य	-9.60265
गति	-9.60275
महोदयः	-9.60311
▁अहम्	-9.60317
सङ्ख्या	-9.60363
ोत्	-9.60392
▁क्षेत्रे	-9.60433
स्ट	-9.60476
▁पुरतः	-9.60484
वर्ग	-9.60495
ण्ट	-9.60498
▁यथार्थ	-9.60525
▁अगच्छत्	-9.60556
▁मोह	-9.60592
as	-9.60608
संस्था	-9.60628
निर्मित	-9.60664
युग	-9.60739
२४	-9.60751
रू	-9.60777
काण्ड	-9.60796
▁ज्ञातुं	-9.60806
▁अनेकानि	-9.60843
▁१०००	-9.60914
स्वर	-9.6092
▁अक्षर	-9.60995
ग्र	-9.60999
माण	-9.61004
००	-9.61024
शाङ्करभाष्य	-9.61075
▁स्वर्ग	-9.61109
स्ट्	-9.61167
▁शि	-9.6122
राग	-9.61298
▁पार्श्वे	-9.61388
ापेक्षया	-9.61454
▁मृत्युः	-9.61467
पत्र	-9.6153
▁नाट्य	-9.61547
परीक्षा	-9.61554
ाश्रम	-9.61607
▁नक्षत्र	-9.61632
▁आश्रम	-9.61646
▁अस्यां	-9.61648
▁बो	-9.6166
▁अष्टाङ्गयोगः	-9.61673
▁मिलित्वा	-9.61679
▁[[	-9.61711
▁अभ्यासः	-9.61732
▁गभीरं	-9.61738
▁The	-9.61836
ासन	-9.61872
▁चित्त	-9.61891
▁तस्यां	-9.61983
व्या	-9.6201
मित	-9.62128
वद्	-9.62258
▁गहन	-9.62317
▁निर्मित	-9.62321
▁भगवता	-9.62322
शक्तिः	-9.62329
द्र	-9.62351
गिरि	-9.62356
ाभ्यास	-9.62448
▁मधु	-9.6257
▁अलङ्कार	-9.62588
▁येषु	-9.62629
२२	-9.62646
▁शेष	-9.62669
▁वसन्ति	-9.62708
▁२४	-9.62979
▁प्रकार	-9.62985
ेष्व	-9.62997
▁दशके	-9.63041
डे	-9.63044
st	-9.63083
▁युद्धं	-9.63121
सेन	-9.63132
चित्त	-9.63141
▁विकास	-9.63187
▁H	-9.63204
भाषायाः	-9.63268
▁इत्यतः	-9.63282
व्याकरण	-9.6331
▁बी	-9.63431
ूरु	-9.63447
▁स्थानम्	-9.63449
कोश	-9.63458
▁विष	-9.6346
गम	-9.63516
▁उष्ण	-9.63532
▁समाप्त	-9.63549
धिक	-9.63576
युद्ध	-9.63689
▁कन्दुक	-9.63792
वान	-9.63792
▁स्वीय	-9.63861
गीत	-9.63924
महोदयस्य	-9.63945
▁मन्दिर	-9.6401
पात्र	-9.64057
२३	-9.64075
भारतीय	-9.6415
▁स्	-9.64319
ेन्द्रिय	-9.64388
▁जानाति	-9.64396
▁अश्व	-9.64421
जे	-9.64555
▁काश्मीर	-9.64594
▁पुनर्	-9.64665
▁भरत	-9.64665
▁विषयाः	-9.64818
▁भूमौ	-9.64838
▁G	-9.64854
▁भ्रम	-9.64904
▁दु	-9.64922
▁२०१३	-9.64985
देवता	-9.65003
▁प्रभावित	-9.65023
योग्य	-9.65055
▁प्रारम्भिक	-9.65081
▁उक्तम्	-9.65086
▁4.	-9.65134
▁महिला	-9.6516
▁लिङ्ग	-9.65164
▁प्रवृत्त	-9.65228
▁जि	-9.65314
te	-9.65327
ाध्ययन	-9.6534
२०११	-9.6543
▁समाज	-9.65447
▁स्वर्ण	-9.65463
▁बहुधा	-9.6547
▁द्रष्टुं	-9.65572
▁अन्तर्भवन्ति	-9.65578
विभाग	-9.65734
▁भीम	-9.65742
▁२००९	-9.65796
▁वृक्ष	-9.65994
▁हिन्दू	-9.66018
खा	-9.66031
▁अल	-9.66052
नामकं	-9.66057
▁वस्त्र	-9.66072
▁गति	-9.66101
शतक	-9.66104
▁19	-9.66127
▁संवत्सरे	-9.66152
ma	-9.66178
▁वर्धयितुं	-9.662
ाऽपि	-9.6629
▁इतर	-9.66308
▁भूमिका	-9.66328
वन्	-9.66346
▁योगः	-9.66368
▁ग्रन्थाः	-9.66383
▁इत्याख्यः	-9.6649
ष्	-9.665
शु	-9.66579
▁कर्माणि	-9.66626
▁बे	-9.66656
▁प्रचार	-9.66659
▁मातुः	-9.66721
न्तर	-9.66731
▁कृतं	-9.66749
▁पुं	-9.66822
मन्	-9.66879
ोर	-9.66892
▁रात्रौ	-9.66996
ह्	-9.67043
▁अन्येषां	-9.67237
कल्याण	-9.67268
▁पाणिनीय	-9.67314
प्रकार	-9.67324
▁ताः	-9.67333
▁निर्दिष्ट	-9.67361
मासे	-9.67367
प्रक्रिया	-9.67433
▁तद्यथा	-9.67452
▁श्वेत	-9.67498
▁प्रथमा	-9.67534
रुपेण	-9.6756
▁स्वभाव	-9.67583
▁ग्रामे	-9.6763
परम्परा	-9.67631
▁समस्त	-9.67653
ीकृत	-9.67698
▁युग	-9.67727
२८	-9.67732
▁पू	-9.6775
▁शब्दस्य	-9.67801
▁प्राथमिक	-9.67828
▁धातु	-9.67849
क्क	-9.6785
पर्वत	-9.67854
▁आक्रमण	-9.67876
+	-9.67914
माला	-9.67939
मान्	-9.6795
पथ	-9.67951
त्त	-9.67979
ेर्	-9.68052
स्तर	-9.68079
ाख्य	-9.68098
स्थापन	-9.68125
▁प्रदेशे	-9.68137
▁तम्	-9.68166
▁यु	-9.68232
▁शङ्कर	-9.68273
it	-9.68293
▁फलं	-9.68326
शास्त्रस्य	-9.68337
▁अन्तर	-9.68346
▁एम्	-9.68352
▁लेखन	-9.68416
▁विभक्त	-9.68441
ङ्ग्	-9.68506
▁समृद्ध	-9.68678
ː	-9.68683
गृह	-9.68689
▁दार्शनिक	-9.68713
ग्रहण	-9.68795
भूमि	-9.68834
▁करणीयः	-9.68864
फ्	-9.68911
▁पु	-9.68913
▁पुत्री	-9.68969
पूजा	-9.68972
▁है	-9.69117
वीर	-9.6912
▁गर्भ	-9.69139
ta	-9.69158
▁स्थिर	-9.69228
▁सदा	-9.69249
▁भोजन	-9.6928
▁ई०	-9.69399
▁सामान्यतया	-9.69486
समय	-9.69541
िल	-9.69543
▁अधिकार	-9.69596
▁उक्त	-9.69605
▁प्राकृत	-9.69685
▁अद्यापि	-9.69692
मूलश्लोका	-9.69762
▁यन्त्र	-9.69868
▁भवन्तः	-9.69876
▁वास्तविक	-9.6991
▁E	-9.69922
चिन्तन	-9.69926
▁देवता	-9.69929
नाय	-9.69937
▁सहस्र	-9.70106
ॆ	-9.70139
▁D	-9.70185
क्स	-9.70233
▁हिन्दी	-9.7024
▁प्रणीत	-9.70327
भारत	-9.70362
मति	-9.70375
वर्णन	-9.70385
▁साधु	-9.70472
तमवर्षस्य	-9.70501
▁विवाहः	-9.7059
▁भविष्य	-9.70634
त्वस्य	-9.70635
▁श्रद्धा	-9.70669
▁सर्वाधिक	-9.70674
▁समीप	-9.7068
राव	-9.70697
F	-9.70817
▁विश्वास	-9.70837
द्वार	-9.70854
पञ्च	-9.70939
▁स्वामी	-9.70942
ण्ण	-9.71036
स्थल	-9.71048
▁क्रम	-9.71157
जाल	-9.71196
://	-9.71248
ाचार	-9.71277
▁बाण	-9.71278
रिय	-9.71287
शेष	-9.71313
▁प्रयुक्त	-9.71326
ानुसारेण	-9.71342
com	-9.71353
▁शिल्प	-9.7136
▁परस्पर	-9.71383
▁प्रत्येक	-9.71392
विभागे	-9.71395
संहिता	-9.71466
▁त्रयोदश	-9.71503
देवस्य	-9.71548
▁उत्पद्यते	-9.71575
िर	-9.71596
क्षेत्र	-9.71602
ंग	-9.71617
निर्णय	-9.71641
छ	-9.71647
▁सज्ज	-9.71695
राजस्य	-9.71712
२७	-9.71759
युक्ताः	-9.71794
▁श्रुति	-9.71801
▁मन	-9.71854
▁प्रतिवर्ष	-9.71868
▁निम्न	-9.71893
कर्ण	-9.71937
▁निवेश	-9.71939
िनां	-9.71958
am	-9.71996
शब्दस्य	-9.72069
▁अवस्था	-9.72096
सह	-9.72098
चिकित्सा	-9.72103
▁उत्	-9.72197
्व	-9.72227
▁सदस्य	-9.72242
वेग	-9.72245
▁सूचना	-9.72254
दूर	-9.723
▁औषध	-9.72347
▁जाति	-9.72368
▁विनाश	-9.72404
ीश्वर	-9.7244
▁एताः	-9.72523
टीका	-9.72559
▁आरब्धवान्	-9.72568
न्द्र	-9.72604
पू	-9.72613
▁अधि	-9.72647
तस्य	-9.72656
कालीन	-9.72661
सेना	-9.72694
▁बालक	-9.72722
भय	-9.72728
ीयं	-9.72936
▁कण्ठ	-9.73004
▁अङ्क	-9.73106
▁छात्र	-9.73123
▁वेदान्त	-9.73159
▁दर्शनं	-9.73168
मार्गे	-9.73168
शः	-9.73184
▁इटली	-9.73211
▁प्रतिदिनं	-9.73214
येत्	-9.7324
▁पठन	-9.73275
मद्भगवद्गीतायाः	-9.73277
▁ख्रीष्टाब्दे	-9.73292
▁उपयोग	-9.73352
▁योगस्य	-9.73381
दार	-9.73388
िणी	-9.73438
कवि	-9.73446
डु	-9.73463
▁आरम्भः	-9.73514
▁*	-9.73557
▁लब्ध	-9.73563
▁कर्तव्य	-9.73573
नाटक	-9.73594
बुद्धि	-9.73628
ष्य	-9.7363
▁विरोध	-9.73681
बद्ध	-9.73693
▁व्यापक	-9.73709
कल्प	-9.73785
य्य	-9.7381
सभा	-9.73828
▁राज्ञा	-9.73844
▁पितृ	-9.73867
▁व्या	-9.7393
▁निवसन्ति	-9.73944
▁प्रमुखाः	-9.7401
▁यम	-9.74041
▁करण	-9.74044
महोदयेन	-9.74045
क्षेत्रेषु	-9.74075
▁पे	-9.74087
▁स्मृत	-9.74141
▁तस्या	-9.74149
▁अमृत	-9.74204
▁अभूत्	-9.74228
▁कोलकाता	-9.74281
दृश्य	-9.74372
▁प्रसिद्धं	-9.74534
▁लिखित	-9.74581
ुप	-9.74591
L	-9.74628
▁काचित्	-9.74629
णे	-9.7467
▁तर्क	-9.74697
▁सामान्यतः	-9.74706
▁२७	-9.74728
राज्यम्	-9.74772
श्लोक	-9.7478
ादीनि	-9.74802
▁कालान्तरे	-9.74806
▁गुरुः	-9.74808
▁प्रतीयते	-9.74878
▁विभाग	-9.74889
▁उपलब्ध	-9.74895
▁द्वारा	-9.74906
▁तदीय	-9.74912
▁प्राप्ता	-9.74963
▁जनयति	-9.75025
मन्य	-9.75037
▁प्रतीक	-9.75054
कर्ता	-9.7506
▁निम्नलिखित	-9.7517
▁बेङ्गळूरु	-9.75179
पण्डित	-9.75195
था	-9.75197
▁विकासः	-9.75218
ri	-9.75235
▁चत्वारः	-9.7527
▁प्रजा	-9.75329
▁लक्ष्मी	-9.75337
▁रजत	-9.7537
▁चतुर्	-9.75414
▁सर्प	-9.75429
▁दि	-9.75452
ेच्छा	-9.75477
न्स्	-9.75495
▁लिखिता	-9.75507
▁मल	-9.75521
▁अत्यधिक	-9.75599
प्रदेशः	-9.75622
मित्र	-9.75636
वर्ति	-9.75674
ढ	-9.75674
सत्य	-9.75742
▁निष्	-9.75769
▁मङ्गल	-9.75776
▁दा	-9.75832
क्त	-9.75838
▁महत्त्वपूर्ण	-9.75886
▁प्राप्तः	-9.7592
देशः	-9.75936
हित	-9.75944
▁रथ	-9.76019
▁प्राप्तम्	-9.76105
क्षेत्रं	-9.76145
▁मन्दिरम्	-9.76179
▁स्वीकृत्य	-9.76221
गे	-9.76298
नामकः	-9.76341
धार	-9.76356
▁घटना	-9.76382
▁ज्योतिष	-9.7642
वेश	-9.76445
▁हर	-9.76483
नायक	-9.76502
२९	-9.76546
▁समर्थ	-9.76603
▁तीव्र	-9.7666
ाम	-9.76692
▁कर्ता	-9.76705
▁अनुपात	-9.7671
▁साक्षात्	-9.76768
वश	-9.7679
▁प्रकाशित	-9.76793
▁परम्परा	-9.768
६०	-9.76807
▁विश्वे	-9.76814
▁षष्ठ	-9.76902
▁लक्ष्य	-9.7697
▁केवल	-9.76973
जो	-9.77059
▁क्रीड	-9.77063
चरण	-9.77146
्यै	-9.77147
▁श्वसन	-9.77206
▁तल	-9.77211
क्षेत्रम्	-9.77238
na	-9.7725
▁युद्धे	-9.77278
विश्व	-9.77331
▁स्मरति	-9.77409
मोह	-9.77492
ोर्	-9.77532
▁राक्षस	-9.77565
▁शोध	-9.77587
यामास	-9.77608
यू	-9.77611
▁महत्त्वपूर्णं	-9.77656
▁भय	-9.77673
▁राजनैतिक	-9.77757
देवः	-9.77763
यत	-9.77826
▁द्रव्य	-9.77843
um	-9.7785
▁महती	-9.78024
रूपा	-9.78025
G	-9.78028
भाषया	-9.78061
▁सो	-9.78062
▁गुणाः	-9.78076
दिने	-9.78108
▁गौरव	-9.78154
ol	-9.78159
▁कै	-9.78164
प्रशस्तिः	-9.78168
मभि	-9.7819
▁मान	-9.78205
▁पो	-9.78242
▁नद्यः	-9.78324
▁यू	-9.78358
▁आफ्	-9.78403
▁http	-9.78434
ाप्य	-9.78526
पो	-9.78556
करः	-9.78636
▁मनसः	-9.78664
▁पृथ्वीराजस्य	-9.78671
▁क्षण	-9.7868
▁शुभ	-9.78705
वत	-9.78739
वल	-9.78751
ण्	-9.78786
▁शतके	-9.78795
तौ	-9.78796
र्म	-9.78838
▁कन्या	-9.78857
ation	-9.78891
▁देवालयः	-9.78953
▁ऋण	-9.78989
▁विरचित	-9.79021
▁प्रदेश	-9.79029
▁त्याग	-9.79048
▁प्रमुखं	-9.79049
▁समीपस्थ	-9.79051
▁पश्यति	-9.79074
▁भट्ट	-9.79079
पदं	-9.79101
▁मध्यम	-9.79108
शैली	-9.7913
सम्प्रदाय	-9.79151
▁मन्द	-9.79257
▁स्वकीय	-9.7928
▁केन	-9.79321
▁कृतवती	-9.79441
ाचार्यः	-9.79469
▁रूपं	-9.79483
ालय	-9.79578
षि	-9.79654
ग्रन्थाः	-9.79692
▁घ	-9.79697
सीमा	-9.79722
▁प्रवहति	-9.79724
कृत्य	-9.79728
▁एकत्र	-9.79758
▁संलग्न	-9.79783
विधिः	-9.79849
२१	-9.79897
सदृश	-9.79923
▁जी	-9.79923
▁यानि	-9.79952
▁साक्षरता	-9.8
▁ग्रन्थोऽय	-9.80008
▁परिचय	-9.80031
▁जगत्	-9.80073
▁पद्म	-9.80115
▁प्रमुखः	-9.80257
र्ह	-9.80263
दिति	-9.80278
यम	-9.80308
दुःख	-9.80308
सस्य	-9.8032
▁योगदानं	-9.80322
▁भवतु	-9.80491
शिक्षण	-9.80538
▁२२	-9.80554
स्वभाव	-9.80605
▁K	-9.80631
▁पार्श्व	-9.80664
▁पाल	-9.80736
▁कल	-9.8074
पर्व	-9.80778
▁नवम	-9.8083
▁अध्ययन	-9.80891
▁संशोधन	-9.80921
▁सर्वान्	-9.80937
▁तदर्थ	-9.80951
स्म	-9.80999
एक	-9.81023
मप्य	-9.81163
▁फलकम्	-9.81171
क्षेत्रस्य	-9.81185
पट	-9.81288
▁पाणिनि	-9.81302
स्र	-9.81323
▁निश्चित	-9.81371
▁२००६	-9.81373
ad	-9.81382
▁महाराष्ट्रराज्य	-9.81397
▁मृत	-9.81399
टक	-9.81446
स्था	-9.8148
▁सफल	-9.81494
भावः	-9.81504
▁इतः	-9.81507
राजः	-9.81535
▁जगति	-9.81542
▁॥'	-9.81604
▁भावना	-9.81655
▁वर्णन	-9.81698
▁निर्मितं	-9.8177
संज्ञा	-9.81835
▁त्रीणि	-9.81837
▁काशी	-9.81898
वर्	-9.81901
▁माधव	-9.81919
H	-9.81925
तल	-9.81925
▁निर्माणम्	-9.81949
▁२१	-9.81988
▁क्षेत्रं	-9.82073
▁लक्ष्मण	-9.82129
▁सागर	-9.82156
▁नाना	-9.8217
▁प्रवास	-9.82185
O	-9.82186
लक्ष्य	-9.82204
ir	-9.82222
▁प्रापत्	-9.82249
▁प्राप्तवती	-9.82261
इति	-9.82271
▁आगच्छन्ति	-9.82281
प्रदर्शन	-9.82336
विकार	-9.82344
रः	-9.8235
ग्रन्थे	-9.82382
▁सस्य	-9.82421
▁स्तम्भ	-9.82429
▁प्रो	-9.82481
▁सत्त्व	-9.82541
काय	-9.82542
▁प्रोक्त	-9.82554
▁मध्यप्रदेशराज्य	-9.82578
▁अतो	-9.82582
न्तः	-9.82611
4	-9.82636
▁इत्यादिभिः	-9.82738
▁सूक्त	-9.82776
▁परीक्षण	-9.82809
मिश्र	-9.82845
वन्त	-9.82884
▁परिवार	-9.82946
▁२०१५	-9.82952
्यम्	-9.83024
▁तासा	-9.83063
तं	-9.83108
धर्मस्य	-9.83129
▁मासस्य	-9.83205
▁सभा	-9.83228
िनो	-9.83283
▁पार्थ	-9.83291
▁टिप्पणी	-9.83293
▁चलच्चित्र	-9.8333
▁स्थलं	-9.83425
▁सीमा	-9.83444
़	-9.83448
विधान	-9.83451
भोग	-9.83485
कालिक	-9.83555
नाश	-9.83667
राय	-9.83717
▁दीप	-9.8377
ीकरणं	-9.83788
▁मै	-9.83807
यन्तु	-9.83808
क्षण	-9.83837
कट	-9.83936
ारम्भ	-9.84111
▁शाक	-9.84173
▁व्याख्यान	-9.84219
▁वृत्त	-9.84255
▁लेख	-9.84317
▁जो	-9.84317
वर्धन	-9.84324
▁द्वितीयः	-9.84352
स्मै	-9.84375
ज्ञात	-9.844
▁उभय	-9.84405
▁सङ्केत	-9.84456
ाधिकार	-9.84469
धी	-9.84483
वन्तौ	-9.84504
शाला	-9.84513
रति	-9.84634
श्वास	-9.8465
सङ्गीत	-9.84664
रथ	-9.84682
वंशस्य	-9.84694
▁कृषिः	-9.84765
▁नन्द	-9.84784
▁श्वास	-9.84794
सङ्ग	-9.84805
▁तत्रापि	-9.8481
▁अरण्य	-9.84822
▁मातृ	-9.84837
▁उद्	-9.84841
▁कुर्वन्तः	-9.84857
▁पञ्चदश	-9.84898
नक्षत्र	-9.84928
▁श्रवण	-9.84938
▁पात्र	-9.84988
▁आधार	-9.85002
मणि	-9.8502
▁अन्तर्	-9.8509
▁नाडी	-9.85095
▁अधिका	-9.85172
▁दुर्ग	-9.852
la	-9.85206
▁पतञ्जलिः	-9.85229
▁नर	-9.8531
त्याग	-9.85334
ाणाम	-9.85367
▁निरुक्त	-9.85373
▁जलस्य	-9.85388
▁शाखा	-9.85434
▁W	-9.85484
टे	-9.85488
▁चेदपि	-9.85523
▁शोक	-9.8557
ान्तर्गत	-9.85575
ाच्च	-9.85583
▁विश्वविद्यालय	-9.85601
▁आदर्श	-9.85617
ध्यान	-9.8566
▁धर्मस्य	-9.85661
सामान्य	-9.85671
▁विश्वासः	-9.85763
▁प्रकरण	-9.85843
▁ततो	-9.85857
ल्ला	-9.85893
▁राधा	-9.85985
▁गणित	-9.86006
▁उपदेश	-9.8602
मानं	-9.86044
ास	-9.86044
▁२३	-9.86045
चरित	-9.86048
▁लि	-9.86062
▁२८	-9.86062
पृष्ठ	-9.86079
ही	-9.86143
▁यत	-9.86149
▁पृष्ठस्य	-9.86188
मार्गः	-9.86193
द्वितीय	-9.86219
▁s	-9.86227
▁मतम्	-9.86259
▁माया	-9.86277
▁सूचयति	-9.8628
ीयम्	-9.86282
▁अन्त	-9.86296
धान	-9.86309
भिर्	-9.86315
योगस्य	-9.86358
योजन	-9.8651
▁बभूव	-9.86523
▁पञ्जाब	-9.8658
हो	-9.86632
▁विद्यमानः	-9.8665
▁सर्वकारेण	-9.86665
▁गौतम	-9.86701
▁राज्यं	-9.86745
ावली	-9.86819
पुष्प	-9.8682
▁लोह	-9.86905
▁पशु	-9.86909
▁ड	-9.86931
▁प्रसार	-9.86979
गणित	-9.87045
ीकरण	-9.87067
व्	-9.87113
▁पारम्परिक	-9.8713
▁आर्य	-9.87168
▁गुजरात	-9.87274
▁द्वितीये	-9.87298
▁इत	-9.87305
▁सेना	-9.8734
ाचरण	-9.87448
▁कृति	-9.87461
▁अनुकूल	-9.87464
माल	-9.87484
▁प्रतिक्रिया	-9.87508
न्ती	-9.87535
V	-9.87552
▁वर्षा	-9.87567
▁सुवर्ण	-9.87591
र्ण	-9.87625
▁तपः	-9.87659
▁जगतः	-9.87683
भावेन	-9.87716
▁भवेयुः	-9.8775
▁अज्ञान	-9.8777
et	-9.87777
▁तंत्रिका	-9.87779
▁ख्यात	-9.87816
कानां	-9.87835
▁लोके	-9.87855
हस्त	-9.87932
▁व्यास	-9.88011
▁अध्यक्ष	-9.88011
▁भूमि	-9.88136
ɑ	-9.88159
▁for	-9.88199
▁वाम	-9.88281
▁तत्रत्य	-9.88288
▁सुनिश्चितं	-9.88292
▁संज्ञा	-9.8837
▁वयसि	-9.88389
▁कात्यायन	-9.88404
▁निर्माण	-9.88408
▁विमान	-9.88416
▁मेरुदण्डस्य	-9.8842
गर	-9.88487
ादिकं	-9.88536
▁मैसूरु	-9.8855
▁पदं	-9.88578
▁पूर्वमेव	-9.88614
मते	-9.88665
▁अत्रैव	-9.88668
▁ध्रुव	-9.88719
ोपदेश	-9.88733
वृत्तिः	-9.88801
9	-9.88898
ऽस्ति	-9.88956
▁एन	-9.88992
▁कारणम्	-9.88994
नू	-9.89054
र्त	-9.89062
विलास	-9.89192
ro	-9.892
▁दर्शनीय	-9.89255
भद्र	-9.89272
▁प्रसाद	-9.89294
▁मस्तिष्क	-9.89345
▁अज	-9.89359
▁विद्यमानं	-9.8938
▁अस	-9.89584
तप	-9.8966
त्येव	-9.89662
ia	-9.89705
▁श्लोकाः	-9.89738
भाष	-9.89747
▁में	-9.89903
!	-9.8995
▁सहायकं	-9.8995
रसः	-9.89971
संस्थायाः	-9.89986
क्षमता	-9.89989
▁अनन्तरम्	-9.90009
▁जड	-9.9002
ाभाव	-9.90021
▁निवास	-9.90023
▁क्रमशः	-9.90036
ुक्त	-9.90056
प्रिय	-9.9006
जनक	-9.9012
▁आश्रय	-9.90131
▁छात्राणां	-9.9017
ँ	-9.90182
सान्द्रता	-9.90214
“	-9.90252
यथा	-9.90345
▁पत्र	-9.90402
▁V	-9.90405
▁आचर्यते	-9.90502
ेभ्यो	-9.90526
धातु	-9.90547
▁लिखितवान्	-9.90557
▁कुमार	-9.90589
▁बीज	-9.90629
ायन	-9.90708
▁पराजय	-9.9082
नुसारं	-9.9085
▁शून्य	-9.90895
▁स्थित्वा	-9.90919
▁स्थल	-9.90924
▁नष्ट	-9.9103
▁वैद्य	-9.91033
▁समावेश	-9.91135
रव	-9.91163
▁साधारण	-9.91196
▁डे	-9.91204
▁तच्च	-9.91269
▁नामक	-9.91343
▁२६	-9.91351
निष्ठ	-9.91391
ार्य	-9.91428
राष्ट्र	-9.91438
▁प्रयोजन	-9.91466
टन	-9.91505
र्भवति	-9.91517
▁उदाहरण	-9.91521
8	-9.91581
▁भोजनं	-9.91599
▁स्थिति	-9.91618
विशेषः	-9.91631
हत	-9.9165
▁निद्रा	-9.91658
वर्षाणि	-9.91659
▁नियत	-9.91807
▁सम्पूर्णे	-9.91824
▁प्रतिभा	-9.91839
▁उत्सवः	-9.91842
▁सौन्दर्य	-9.91848
ल्य	-9.91849
गमन	-9.9193
भाषासु	-9.91953
▁अनुवाद	-9.91973
हृदय	-9.9199
प्राप्त	-9.92089
▁पित्त	-9.92255
प्रकारक	-9.92284
j	-9.923
नृत्य	-9.92303
कथन	-9.92328
▁तेषाम्	-9.92469
▁आङ्ग्लभाषायां	-9.92526
▁मृदु	-9.92533
▁प्रख्यात	-9.92583
▁पदस्य	-9.92654
पुस्तक	-9.9273
▁प्रथमे	-9.92759
पीठ	-9.9276
संशोधन	-9.92761
विस्तार	-9.92786
▁कुटुम्ब	-9.92827
▁इत्थं	-9.92876
▁यद्धि	-9.92936
वाहन	-9.92994
▁अभावः	-9.93054
८०	-9.93064
▁रामायण	-9.93187
सुर	-9.93209
स्योपरि	-9.93236
तृ	-9.93239
▁जनसंख्या	-9.93247
▁संरचना	-9.93267
जातीय	-9.93296
तत्	-9.93299
पक्षस्य	-9.93309
तायां	-9.93319
2	-9.93323
शाखा	-9.93324
▁सरस्वती	-9.93335
▁काष्ठ	-9.93358
▁कोर	-9.93437
विवेक	-9.9347
कारी	-9.93516
▁शङ्ख	-9.93539
▁एकैक	-9.9354
▁रुद्र	-9.93573
त्या	-9.93601
▁क्षत्रिय	-9.93639
नाग	-9.93653
कर्ष	-9.93684
▁शक्नुमः	-9.93685
▁सन्धि	-9.93708
▁आत्मानं	-9.93721
▁अष्टम	-9.93729
▁अभिनय	-9.93782
पार	-9.93805
दिश	-9.9382
▁शिखर	-9.9383
▁तीर्थ	-9.93833
प्रत्यक्ष	-9.93844
▁जले	-9.93844
▁कथन	-9.93849
▁प्रौढ	-9.9386
भङ्ग	-9.93867
▁स्थिता	-9.93909
बु	-9.93993
▁वक्षःस्थलं	-9.94007
▁क्ष	-9.94089
▁मृत्यु	-9.94089
ग्रन्थः	-9.94142
▁भारतदेशस्य	-9.94242
▁रामः	-9.94247
▁I	-9.94278
ात्मिका	-9.94341
ाक्षर	-9.94409
▁मरण	-9.94459
▁पर्व	-9.94468
▁विकसित	-9.9448
व्यय	-9.945
ेश	-9.94544
▁महाभारत	-9.94549
▁कदा	-9.94577
▁शिवस्य	-9.94591
ाति	-9.94658
▁विविधाः	-9.94661
▁नील	-9.94664
▁प्रदेशः	-9.94734
▁ततश्च	-9.94741
शिष्य	-9.94756
पल	-9.94757
▁पुनर	-9.94759
शङ्कर	-9.94837
▁दल	-9.94838
प्रश्न	-9.9484
ोल	-9.94844
▁महर्षि	-9.94868
युत	-9.94889
मानसिक	-9.94922
प्रणीत	-9.94962
▁आगच्छति	-9.94975
बीज	-9.95023
द्रव्य	-9.95036
▁जीवने	-9.95091
बो	-9.95111
▁समस्या	-9.95131
ादिभिः	-9.95151
कालस्य	-9.95186
ज्य	-9.95222
िषु	-9.95268
▁आगतः	-9.95309
म्बा	-9.95352
▁महिलाः	-9.9536
▁प्रचलित	-9.95396
▁विदेश	-9.95402
िकायाः	-9.95424
▁स्वस्थ	-9.95456
मद	-9.95463
▁ऽ	-9.95481
▁सम्मान	-9.95529
▁अंश	-9.95568
ार्थः	-9.95661
▁दुष्ट	-9.95702
▁वसिष्ठ	-9.95703
▁गद्य	-9.95723
▁अद्य	-9.9573
▁रक्ष	-9.95759
घात	-9.95796
▁1	-9.95804
वस्त्र	-9.95826
शो	-9.95831
मती	-9.95846
▁लेखक	-9.9586
ेत्य	-9.95862
▁समीचीन	-9.95924
▁समर्थनं	-9.95952
▁सन्दर्भः	-9.95952
▁सिद्धान्तः	-9.95978
क्रिय	-9.96016
चन	-9.96038
▁प्रायश्चित्त	-9.96045
▁पृष्ट	-9.96132
from	-9.96147
तरं	-9.96175
▁अशोक	-9.96196
र्ध	-9.96204
▁गणना	-9.96217
▁भवतीति	-9.96219
मेकं	-9.96224
▁मितवैक्रमाब्द	-9.96237
▁मतं	-9.96275
▁नो	-9.96307
▁जिनालय	-9.96378
▁धावन	-9.96385
समीपे	-9.96416
सहित	-9.96448
हु	-9.96468
नामक	-9.96504
ास्त	-9.96529
▁प्रतिष्ठा	-9.96562
[	-9.96562
▁अयच्छत्	-9.96564
▁भास	-9.96585
▁लक्ष्यं	-9.96612
स्यास्य	-9.96626
▁शृङ्गार	-9.96795
▁समयः	-9.96837
▁पर्याप्त	-9.96903
ण्ड्	-9.96934
ोऽप्य	-9.96936
चतुरस्रकिलोमीटर्	-9.96954
देह	-9.96977
भावना	-9.97019
धानसभाक्षेत्राणि	-9.97022
गी	-9.97035
▁किम्	-9.9708
प्रवाह	-9.97081
▁गृहं	-9.97114
▁चत्वारि	-9.9717
▁ग्रामः	-9.97204
▁मेघ	-9.9722
▁एतद	-9.97228
ाधार	-9.97231
▁मुख्यतया	-9.97243
▁परीक्षा	-9.97264
▁शुष्क	-9.9728
माध्यमेन	-9.97319
▁ग्रहण	-9.9733
▁मित	-9.97362
त्वम	-9.97378
ीयाः	-9.97379
प्राण	-9.97381
नै	-9.97394
▁सुर	-9.97398
देव्याः	-9.97442
▁आयुर्वेदस्य	-9.97495
▁पाश्चात्य	-9.97553
▁रत्न	-9.97655
▁प्रबल	-9.97759
मस	-9.97776
▁गोल	-9.97778
▁बन्धन	-9.97807
·	-9.97825
▁उच्यन्ते	-9.97825
फि	-9.97825
ाश्रय	-9.97828
▁लोकप्रिय	-9.97862
▁विद्वान्	-9.97878
▁प्रशंसा	-9.97879
▁गणेश	-9.9788
▁रचित	-9.97919
▁द्रव	-9.97928
मञ्जरी	-9.97945
1	-9.9795
वादः	-9.97966
कारि	-9.97987
▁विश्वनाथ	-9.98019
युक्ता	-9.98034
हं	-9.98141
▁परिवर्तित	-9.98144
▁केषाञ्चन	-9.98248
▁भाषाः	-9.98268
▁रङ्ग	-9.98278
सर्ग	-9.98415
▁ॐ	-9.9843
ोत्सव	-9.9843
▁क्षमता	-9.98495
▁निर्मिताः	-9.98502
▁विख्यात	-9.98522
▁वास	-9.98626
▁आरब्धम्	-9.9865
▁कुशल	-9.98675
▁द्विधा	-9.98703
▁कर्णाटके	-9.9872
७०	-9.98741
▁क्रीडक	-9.98776
परा	-9.98778
ापर	-9.98802
▁रेखा	-9.98835
भिर	-9.9885
▁कार	-9.98944
कृता	-9.98973
▁आधारः	-9.99016
मत्र	-9.99065
र्ष	-9.99073
▁कारणतः	-9.99108
रेखा	-9.99117
▁हु	-9.99147
▁नारद	-9.9915
▁इत्यस्याः	-9.99174
▁f	-9.99179
▁सू	-9.99215
▁पूर्णतया	-9.99259
द्वि	-9.99259
▁मौलिक	-9.99288
▁मनुष्यस्य	-9.99312
प्रवेशः	-9.9932
पर्यन्त	-9.99328
धारा	-9.99393
▁धनं	-9.99404
स्मि	-9.99462
▁सेवन	-9.99464
परिमित	-9.99529
▁इत्युच्यते	-9.99541
घोष	-9.99588
शिल्प	-9.99636
▁मत्वा	-9.99675
▁वस्तूनि	-9.9968
म्भ	-9.99683
▁वृ	-9.9969
ोचित	-9.99716
▁झ	-9.99729
पद्धतिः	-9.9978
▁नायक	-9.99796
ैश्च	-9.99833
▁बन्ध	-9.99833
▁साहाय्येन	-9.99866
▁संहिता	-9.99882
ितवन्तः	-9.9989
बर	-9.99894
▁श्रीकृष्णः	-9.99945
▁निरूपित	-9.99957
▁योजयित्वा	-9.99962
चार	-10.0001
▁४०	-10.0004
्स्	-10.0005
ब्ब	-10.001
वाह	-10.001
वर्यस्य	-10.0011
▁तदैव	-10.0013
वात	-10.0013
▁गुप्त	-10.0021
िङ्ग्	-10.0024
▁तैल	-10.0032
▁रूपेण	-10.0039
▁लभते	-10.0042
▁२००५	-10.0044
▁पुरुषाः	-10.0046
राशिः	-10.0052
लक्ष	-10.0058
ter	-10.006
जु	-10.006
▁द्वितीयं	-10.0066
वश्य	-10.0068
▁कालिदास	-10.0068
▁श्रीकृष्ण	-10.0069
ial	-10.007
▁स्फुट	-10.0073
▁धर्मशास्त्र	-10.0077
्त	-10.0079
भूमिः	-10.008
▁वैदिकसाहित्यम्	-10.0083
▁शीत	-10.0085
▁विवाद	-10.0085
▁आकाश	-10.0086
ul	-10.0086
ादारभ्य	-10.0099
▁एन्	-10.0102
▁मार्गे	-10.0103
ुत्	-10.0105
▁c	-10.0105
निया	-10.0109
▁विद्यालय	-10.0111
▁मन्दिरे	-10.0116
un	-10.012
▁व्यक्तित्वस्य	-10.0124
▁आचरन्ति	-10.013
▁प्रदत्तम्	-10.0135
▁धर्मः	-10.0141
▁सैन्य	-10.0145
▁संवाद	-10.0145
▁इन्	-10.0146
▁नै	-10.0146
वो	-10.0153
काश	-10.0155
ष्ण	-10.0155
▁ज्ञानम्	-10.0158
▁ऊर्ध्व	-10.016
चे	-10.016
ानी	-10.0162
स्मृति	-10.017
शास्त्रम्	-10.0174
▁प्रकाशितम्	-10.0177
▁वज्र	-10.0181
▁श्र	-10.0183
ज़	-10.0183
▁मानस	-10.0185
▁इमे	-10.0185
▁कीर्ति	-10.0185
परिणाम	-10.0186
दुर्ग	-10.019
▁दशम	-10.0191
थि	-10.0198
▁युक्त	-10.0201
ण्ट्	-10.0202
▁अह	-10.0203
▁महाराज	-10.0212
कर्	-10.0222
▁ऋग्वेद	-10.0226
▁कृतयः	-10.0231
▁शत्रु	-10.0233
▁कठोर	-10.0233
मन्दिर	-10.0238
त्थ	-10.0239
▁भोज	-10.0242
ानुगुणं	-10.0245
ीयते	-10.0246
मनो	-10.0258
पद्य	-10.0267
▁उपनिषत्	-10.0269
शैल्या	-10.0269
स्ता	-10.0276
▁विपरीत	-10.0276
▁आय	-10.0278
▁लौकिक	-10.028
▁मृग	-10.0282
▁सर	-10.0293
ोत्पादन	-10.0296
▁परिचयः	-10.0296
▁स्वीकृत	-10.0298
▁वसन्त	-10.0302
▁व्यञ्जन	-10.0305
मार	-10.0312
▁कार्	-10.0312
ीकरोति	-10.0313
▁मणि	-10.0314
▁आकार	-10.0321
▁ब्रह्माण्ड	-10.0324
प्रेम	-10.0326
ल्प	-10.033
धारण	-10.033
लङ्कार	-10.0339
▁अवशिष्ट	-10.0352
▁उत्पत्तिः	-10.0353
▁आरभत	-10.0354
▁ISBN	-10.0355
▁स्वरूपं	-10.0357
भोजन	-10.0359
▁विरुद्धं	-10.0364
▁दन्त	-10.0366
▁पश्य	-10.0372
▁मुद्रां	-10.0373
ाया	-10.0377
शास्त्रे	-10.0379
▁मन्दिराणि	-10.0385
▁प्राक्	-10.0388
▁ऊर्जा	-10.0395
▁कर्मणि	-10.0403
पान	-10.0404
मव	-10.0408
▁श्लोके	-10.0409
▁अधिकतया	-10.0409
▁जीवित	-10.0412
▁यूरोप	-10.0418
▁सरोवर	-10.042
प्रवृत्ति	-10.0426
▁एवञ्च	-10.0431
वायु	-10.0431
▁पृथ्वीराजः	-10.0433
▁नरसिंह	-10.0435
▁उभयोः	-10.0439
▁गृहीत्वा	-10.0439
तर्क	-10.044
▁आशा	-10.0442
.)	-10.0451
कथ	-10.0453
▁बद्ध	-10.046
▁दुर्गा	-10.0461
▁शासनं	-10.0462
▁इह	-10.0463
स्तस्य	-10.0464
दन	-10.0464
पत्ति	-10.0465
मधिकृत्य	-10.0468
चैतन्य	-10.0472
प्रयोजन	-10.0478
▁नमः	-10.0478
स्वामिविवेकानन्द	-10.0483
▁भाषण	-10.049
टर	-10.0491
स्थिति	-10.0502
▁वाद	-10.0502
विश्वविद्यालयस्य	-10.0503
▁चिन्तन	-10.0506
▁ति	-10.0506
यितुम्	-10.0513
दीप	-10.0514
▁२००४	-10.0517
यम्	-10.0523
▁अन्यतमा	-10.0524
ीभूत	-10.0526
▁रचयिता	-10.0528
▁पश्चिमे	-10.0528
▁अन्यानि	-10.0529
▁इद	-10.053
lo	-10.053
ची	-10.053
▁दीयते	-10.0531
ामः	-10.0539
▁इष्ट	-10.0543
▁सम्भव	-10.0549
▁अधिकांश	-10.0556
▁महाकाव्य	-10.0567
▁साम	-10.0575
▁कफ	-10.0578
ब्र	-10.0578
▁गान्धी	-10.0585
जनसङ्ख्यावृद्धिः	-10.0586
ितानि	-10.0588
▁शास्त्रीय	-10.0591
▁तिथौ	-10.0591
लेखः	-10.0599
ज्ञः	-10.0604
केश	-10.0606
▁अर	-10.0609
▁स्वल्प	-10.0611
तोऽ	-10.0613
स्फ	-10.0614
▁राममोहनः	-10.0615
यामि	-10.0622
▁शक्यन्ते	-10.0623
भूषण	-10.0626
▁प्रवर्तते	-10.0626
▁कूप	-10.0627
▁आरब्धा	-10.0627
वति	-10.0629
5	-10.063
▁शिवः	-10.0631
▁चलचित्र	-10.0632
मत्	-10.0634
गोल	-10.0638
▁तप	-10.0641
▁मनोविज्ञान	-10.0655
सम्भव	-10.0656
पूर	-10.0657
▁महात्मा	-10.0658
ोदाहरण	-10.066
▁क्षीर	-10.0661
▁शिक्षक	-10.0661
▁गभीर	-10.0663
▁क्रोध	-10.0664
सिद्धान्तः	-10.0666
▁योगसूत्रस्य	-10.0667
▁हिन्दूधर्मः	-10.0667
▁हर्ष	-10.0675
तम्	-10.0678
▁तेनैव	-10.0681
▁भारतं	-10.0686
▁प्राणायाम	-10.0687
▁तो	-10.0691
▁संवेदन	-10.0697
▁गमन	-10.07
▁विवरणं	-10.0703
▁शिशु	-10.0705
धाम	-10.0706
▁व्यक्ति	-10.0707
पन्न	-10.071
▁प्रातः	-10.0711
▁सिध्यति	-10.0715
▁दृष्टि	-10.0719
ित्वा	-10.072
▁लक्षणं	-10.0723
विभागः	-10.0724
▁अन्यत्र	-10.0724
ोऽभवत्	-10.0725
▁समाधि	-10.0727
▁प्रवाह	-10.0732
▁इत्येतयोः	-10.0733
ध्व	-10.0733
▁मुद्रायाः	-10.0738
▁महाविद्यालय	-10.0738
▁त्रिविध	-10.0742
▁नितान्त	-10.0743
ेष	-10.075
कानि	-10.0755
▁स्पष्टं	-10.0763
ા	-10.0764
▁शिवराज	-10.0764
नीति	-10.0766
कोट	-10.0767
लोकसभाक्षेत्रे	-10.0772
▁विहित	-10.0776
ठा	-10.0785
४०	-10.0788
▁सप्तम	-10.079
▁कर्	-10.0793
डो	-10.0794
▁ऋग्वेदस्य	-10.0798
▁राय	-10.0803
www	-10.0806
प्रवेश	-10.0806
ग्रे	-10.0807
▁मूलभूत	-10.0808
लेख	-10.0808
▁प्राप	-10.081
शब्दः	-10.0813
▁व्याप्त	-10.0824
वशात्	-10.0825
स्तम्भ	-10.083
▁देवाः	-10.083
स्थानानि	-10.0839
▁धूम	-10.0842
▁कोटि	-10.0843
सूत्राणि	-10.0852
▁/ˈ	-10.0853
▁गिरि	-10.0857
ुक	-10.0867
▁कुर्यात्	-10.0871
नन्द	-10.0872
▁इण्डिया	-10.0873
स्वामि	-10.0873
▁दैव	-10.0878
▁छात्राः	-10.0881
▁द्वार	-10.0883
परिवर्तन	-10.0884
▁पूर्वम्	-10.0884
विरोध	-10.0886
कारेण	-10.0886
▁प्रारम्भ	-10.0906
देवालय	-10.0907
▁युक्तः	-10.0909
▁रज	-10.0912
यतु	-10.0913
कारस्य	-10.0916
▁इत्याख्यस्य	-10.0918
दक्षिण	-10.092
▁उदय	-10.0923
नगरी	-10.0925
▁बहुविध	-10.0927
▁विशेषतया	-10.0927
क्षा	-10.0929
id	-10.0931
▁यान	-10.0943
▁स्ट	-10.0944
▁पति	-10.0947
ध्याय	-10.0955
गङ्गा	-10.0955
▁महाराष्ट्र	-10.096
ज्ञानस्य	-10.0961
पुरी	-10.0964
▁वैराग्य	-10.0968
विद्यालय	-10.097
४८	-10.097
▁आरम्भे	-10.0978
▁केन्द्रं	-10.0978
7	-10.0979
▁ट	-10.0983
▁कमल	-10.0986
▁शरण	-10.0988
साम्राज्यस्य	-10.0995
अभ्यास	-10.0997
▁आगमन	-10.1
▁रचितवान्	-10.1001
प्रद	-10.1002
▁मासे	-10.1003
▁निवसति	-10.1003
sh	-10.1003
▁प्रेरणा	-10.1008
▁पदे	-10.1015
▁तेभ्य	-10.1016
ीति	-10.1016
▁मूल्य	-10.1017
▁वृद्धि	-10.102
▁टि	-10.1023
▁परिभाषा	-10.103
▁Ch	-10.1031
▁मुनि	-10.1034
▁ले	-10.1034
▁५०	-10.1039
ाचार्यस्य	-10.1042
▁योगदर्शनम्	-10.1044
▁N	-10.1044
▁वायुः	-10.1045
▁व्याघ्र	-10.1046
▁प्राचीनतम	-10.1047
ha	-10.1053
▁गोपाल	-10.1059
टन्	-10.1069
टर्	-10.1074
▁मास	-10.1078
▁ब्रह्मणः	-10.1081
▁शान्तं	-10.1081
प्रभृति	-10.1084
बर्	-10.1085
मार्गेण	-10.1087
ध्द	-10.1093
▁हित	-10.1096
न्त्य	-10.1101
िक्	-10.1108
▁जनः	-10.1112
स्वरूपं	-10.1114
▁अपूर्व	-10.1116
सङ्ग्रह	-10.1116
भक्ति	-10.1118
▁निज	-10.1118
sa	-10.1121
▁स्तर	-10.1121
▁स्थानीय	-10.1128
मात्रेण	-10.1129
योजना	-10.1132
शे	-10.1133
॰	-10.1137
▁प्रसिद्धानि	-10.1138
रक्त	-10.114
चलच्चित्र	-10.114
▁औ	-10.114
प्रदान	-10.1141
▁पतञ्जलियोगसूत्र	-10.1143
▁आचार	-10.1144
वादि	-10.1148
▁अत्युत्तम	-10.1151
▁१००	-10.1151
हरण	-10.1156
३१	-10.1157
दिवस	-10.1164
दूरे	-10.1166
मस्य	-10.1167
▁आदेश	-10.1169
विश्वविद्यालयः	-10.1169
▁योगसूत्रम्	-10.1169
ात्र	-10.117
तमं	-10.1171
▁आवश्यकं	-10.1172
गम्य	-10.1182
गन्ध	-10.1183
्‍	-10.1185
▁निर्वाण	-10.1186
योगदिवसः	-10.1188
▁अष्टाविंशति	-10.1188
▁वय	-10.1188
▁ऋषि	-10.1195
▁सूची	-10.1195
दृष्ट	-10.12
▁विद्वांसः	-10.1203
मङ्ग	-10.1206
▁दायित्वं	-10.1208
नामा	-10.1209
निमित्त	-10.1215
पन	-10.1215
▁अध्यक्षः	-10.1216
▁ऊतक	-10.1231
▁शृण्वन्तु	-10.1237
▁इत्यस्मात्	-10.1237
वारं	-10.1239
▁गृहीत	-10.1241
कण	-10.1243
▁पुरुषस्य	-10.1243
नन्तरं	-10.1248
गान	-10.1252
▁अनुमान	-10.1253
▁महाभारते	-10.1256
प्रयत्न	-10.1258
रागः	-10.1259
▁मण्डलं	-10.126
भ्यां	-10.126
▁स्थिते	-10.1268
▁राज्ञी	-10.1269
▁मूत्र	-10.1273
घाट	-10.1275
▁to	-10.1276
▁गोविन्द	-10.1284
पाट	-10.1287
▁नासिका	-10.1287
काराः	-10.1289
▁समाजस्य	-10.1293
▁अद्भुत	-10.1294
संयोग	-10.1297
▁महत्त्वपूर्णा	-10.1297
▁प्रसङ्ग	-10.13
▁राजकीय	-10.13
शब्देन	-10.1302
▁प्रदत्त	-10.1304
त्रा	-10.1306
▁हास्य	-10.1306
▁सत्ता	-10.1309
▁कामना	-10.1317
ीत	-10.132
निर्देश	-10.132
▁श्राद्ध	-10.1327
▁संवेग	-10.1332
▁निर्मातुं	-10.1335
वाल	-10.1335
▁सिद्ध्यति	-10.1335
लोकसभाक्षेत्रम्	-10.1338
▁मृत्योः	-10.1338
किलोमीटर्मिते	-10.1341
ण्डि	-10.1343
▁ग्र	-10.1348
व्यासभाष्यम्	-10.1348
▁हेतु	-10.135
अहं	-10.135
▁संविधान	-10.1351
▁परिवर्तन	-10.1354
▁राजनीति	-10.1356
▁रण	-10.1362
▁दर्शित	-10.1363
ादौ	-10.1372
▁उत्तरे	-10.1375
ोद	-10.1382
९०	-10.1382
▁उदर	-10.1387
▁नीति	-10.1388
ादित्य	-10.1392
▁निर्माय	-10.1392
ेते	-10.14
वंशीय	-10.1401
▁तथ्य	-10.1402
समूह	-10.1403
ेषां	-10.1406
▁शैव	-10.1406
▁अधिकः	-10.141
लघु	-10.1413
▁इत्याख्येन	-10.1418
▁उदाहरणम्	-10.142
▁उत्पादन	-10.142
▁स्थले	-10.142
▁वस	-10.1421
भेदेन	-10.143
▁त्वा	-10.1431
▁रामस्य	-10.1432
▁बाल्य	-10.1434
्यमान	-10.1436
तीर्थः	-10.1442
दृश	-10.1442
▁केरल	-10.1446
▁सेव	-10.1447
▁क्रिस्ताब्द	-10.1447
लय	-10.145
स्थले	-10.1466
कार्यक्रम	-10.1467
सूर्य	-10.1468
िम	-10.1472
बन्धन	-10.1473
▁प्रसन्न	-10.1474
▁सङ्घ	-10.1474
▁सौ	-10.1475
्मितः	-10.1476
नित्य	-10.1478
▁चतुरस्रकिलोमीटर	-10.148
▁शिरः	-10.1483
▁समन्वय	-10.1483
▁चिन्त	-10.1486
चु	-10.1489
▁फे	-10.1491
▁मदन	-10.1493
▁विधानसभाक्षेत्र	-10.1499
▁व्याख्यात	-10.15
सङ्घ	-10.1501
▁व्यवसाय	-10.1503
▁लम्ब	-10.1509
▁स्नेह	-10.1514
चित	-10.1515
▁रि	-10.1516
▁कोश	-10.1516
द्वयम्	-10.152
कण्ठ	-10.1521
▁विशेषः	-10.1521
▁नल	-10.1522
▁नाटकं	-10.1528
▁वर्धमानः	-10.1528
ऽऽ	-10.1528
▁प्रबन्ध	-10.1534
▁उपर्युक्त	-10.1534
▁मेघनाद	-10.1534
योगः	-10.1535
मीमांसा	-10.1537
▁बिहार	-10.1539
▁कष्ट	-10.1542
८४	-10.1542
निर्णयः	-10.1542
▁मयि	-10.1545
▁सार्वजनिक	-10.1555
▁वी	-10.1557
▁सै	-10.1559
▁प्रार्थना	-10.1568
णम्	-10.1574
▁लाल	-10.1579
▁नून	-10.158
वर्यः	-10.1582
ादयो	-10.1584
जर	-10.1584
सूत्रसारः	-10.1585
▁मिश्र	-10.1587
प्त	-10.1588
विद्य	-10.159
▁ऊ	-10.1593
ोऽध्याय	-10.1596
▁प्रवृत्ति	-10.1596
द्वीप	-10.1597
▁अमर	-10.1598
▁प्रतिभाति	-10.1599
▁केवलम्	-10.16
▁कर्मयोग	-10.1606
विश	-10.1609
ाशय	-10.161
ूर्	-10.161
वादी	-10.1612
्यु	-10.1613
कार्याणि	-10.1613
▁सर्वकार	-10.1619
तन	-10.162
▁धार	-10.162
▁भामह	-10.1621
कोष	-10.1625
▁जटिल	-10.1628
▁शतक	-10.1629
चित्	-10.163
केन्द्रम्	-10.164
▁शक्तिः	-10.1642
▁व्यय	-10.1645
▁गान	-10.1646
▁फुफ्फुस	-10.1646
यी	-10.1652
मै	-10.1652
माता	-10.1653
▁ज्ञानस्य	-10.1664
वध	-10.1666
▁वार	-10.1672
७५	-10.1674
शिखर	-10.1681
स्वामिनः	-10.1682
▁औन्नत्य	-10.1686
▁कल्पित	-10.1688
ग्न	-10.1688
ाग्नि	-10.169
▁सिद्धि	-10.169
मानव	-10.1691
▁मध्यभागे	-10.1693
विभागस्य	-10.1694
▁सप्तदश	-10.1696
अनु	-10.1697
▁अन्तरिक्ष	-10.1701
▁महाभाष्य	-10.1705
▁केन्द्रीय	-10.1709
ana	-10.171
▁सद्	-10.1711
जनपद	-10.1713
ग्रन्थस्य	-10.1716
स्रोत	-10.1725
▁पृथिव्या	-10.1728
स्तरे	-10.1729
▁ब्र	-10.1731
▁नामकः	-10.1732
▁कानिचन	-10.1738
▁लचीलतां	-10.174
पत	-10.1742
▁मल्ल	-10.1742
▁उद	-10.1743
▁राजानः	-10.1745
कारक	-10.1745
▁स्थितिकाल	-10.175
▁नेपाल	-10.1751
▁स्पर्श	-10.1752
स्थलं	-10.1753
शुद्ध	-10.1754
प्राप्ति	-10.1754
co	-10.1759
▁फलानि	-10.176
▁त्रिषु	-10.176
▁जाल	-10.1772
र्ग	-10.1777
ुद	-10.1779
▁उत्पत्ति	-10.1784
▁सूत्राणि	-10.1786
▁घन	-10.1788
लै	-10.179
गुप्त	-10.179
सूक्त	-10.1791
▁कुत्रापि	-10.1792
मात्रं	-10.1794
▁शक्य	-10.18
ङ्गल	-10.1801
▁चेतन	-10.1801
▁लक्ष	-10.1802
समुद्र	-10.1806
शन	-10.1807
क्स्	-10.1818
▁वार्ता	-10.1823
३५	-10.1827
▁अन्वेषणं	-10.1828
▁ज्येष्ठ	-10.1832
▁कर्मणा	-10.1838
राशि	-10.184
ष्व	-10.1846
▁नियमितरूपेण	-10.1847
६७	-10.185
▁मत्स्य	-10.1851
जीवनस्य	-10.1853
▁किलोमीटरमिते	-10.1858
▁कुत्र	-10.1862
▁चास्ति	-10.1864
▁विधान	-10.1864
रक्षण	-10.187
▁द्वीप	-10.1878
विचारः	-10.1879
आङ्ग्ल	-10.188
▁उल्लिखित	-10.1884
x	-10.1887
▁तटे	-10.1887
▁सम्पन्न	-10.189
४५	-10.189
▁मार	-10.1891
▁District	-10.1893
▁व्यक्त	-10.1893
स्ते	-10.1895
▁हिन्द	-10.1896
▁वैशिष्ट्यम्	-10.1898
▁चीन	-10.1901
▁सहज	-10.1903
▁द्वितीया	-10.1907
▁क्लेश	-10.1907
▁दिवस	-10.1912
hi	-10.1914
ोक्ति	-10.1915
▁जीवः	-10.1918
▁पृष्ठतः	-10.1919
▁रक्तं	-10.1919
▁पाक	-10.1921
▁स्मारक	-10.1922
▁कारक	-10.1925
९९	-10.1928
पर्य	-10.193
स्पर्श	-10.193
▁मद	-10.193
प्रदेशेषु	-10.1934
▁स्वास्थ्य	-10.1935
मेतत्	-10.1936
हास	-10.1939
प्रसिद्ध	-10.1939
क्षर	-10.1945
मृ	-10.1948
▁वैष्णव	-10.195
पुरे	-10.195
▁सर्वाः	-10.1951
▁आर	-10.1953
▁प्रतिपादित	-10.1954
▁पृथिव्याः	-10.1956
▁असौ	-10.1957
▁दिशि	-10.1957
क्ष्य	-10.1958
▁योगदानम्	-10.1959
मयं	-10.1961
याम	-10.1962
ान्ते	-10.1965
▁स्नान	-10.1967
महानगरे	-10.1973
▁प्रतिचतुरस्र	-10.1974
भारतस्य	-10.1975
▁सम्पूर्णं	-10.1977
▁सद	-10.1978
▁शैली	-10.1981
▁जीवनम्	-10.1983
▁भागे	-10.1983
विद्	-10.1983
▁विचारः	-10.1988
▁प्रप्रथम	-10.199
▁प्रज्ञा	-10.1991
▁प्रशस्तिः	-10.1992
▁वातावरणं	-10.1996
दर्शनम्	-10.1999
▁व्रत	-10.2
▁प्राप्तवन्तः	-10.2004
ाधि	-10.2005
मन्दिरस्य	-10.2006
प्रकृति	-10.2007
लोकसभाक्षेत्र	-10.2009
▁पाण्डव	-10.2013
▁मुद्रायां	-10.2014
▁अध्यात्म	-10.2015
श्चा	-10.2018
▁गन्ध	-10.2028
▁छन्दः	-10.2029
▁संयोग	-10.2029
▁नौका	-10.2029
ण्य	-10.203
ष्टा	-10.2034
संज्ञक	-10.2036
▁इत्याख्य	-10.2036
६८	-10.2036
फलं	-10.2039
कौशल	-10.2041
ाख्या	-10.2042
▁अवस्थित	-10.2045
▁शक	-10.2051
य्	-10.2054
ाश्व	-10.2057
▁स्थिताः	-10.2058
▁पौराणिक	-10.206
ग्रामस्य	-10.2061
▁वैश्विक	-10.2062
मूल्य	-10.2064
ोक्तं	-10.2065
▁वद	-10.2066
ेश्वरः	-10.2072
▁5.	-10.2073
प्राप्तिः	-10.2076
क्रीडायाः	-10.208
९४	-10.2082
▁पर्यावरण	-10.2085
▁हिम	-10.2092
▁यादव	-10.2093
▁सम्प्रदाय	-10.2094
▁/	-10.2097
▁निर्दिशति	-10.2105
भ्र	-10.2106
▁यस्मात्	-10.2106
र्तु	-10.2106
▁पृष्ठे	-10.2107
गद	-10.2113
▁स्वीकरोति	-10.2117
▁रावण	-10.2121
भट्टः	-10.2122
im	-10.2123
मू	-10.2125
९३	-10.2126
▁रसः	-10.2127
▁प्रकट	-10.2128
▁भी	-10.2128
स्थितिः	-10.2133
त्वाद्	-10.2134
▁वध	-10.2137
प्राचीन	-10.2146
▁सन्त	-10.2147
▁कषाय	-10.215
कृत्	-10.2153
ेतर	-10.2154
▁वाहन	-10.2154
चतुष्टय	-10.2158
वाच	-10.2158
▁प्रताप	-10.2161
▁राजस्थान	-10.2165
७७	-10.217
ुम्	-10.2174
मकरोत्	-10.2176
▁सिन्धु	-10.2179
६३	-10.2183
▁क्षेत्रेषु	-10.2183
▁माघ	-10.2186
लिक	-10.2189
प्रसङ्ग	-10.2192
▁अष्टवि	-10.2192
▁प्रत्या	-10.2192
ne	-10.2193
▁हृदयं	-10.2196
▁जायमान	-10.2197
मितः	-10.22
सूची	-10.2203
वर्तन	-10.2205
कुण्ड	-10.2206
▁वेदाङ्ग	-10.2206
▁जगन्नाथ	-10.2207
▁आसीदिति	-10.2211
▁निर्वाचनक्षेत्र	-10.222
▁निर्मितवान्	-10.2221
बुद्धिः	-10.2226
▁इत्युक्ते	-10.2227
क्रमण	-10.2228
▁महत्त्व	-10.2232
ादिक	-10.2232
▁उत्तरप्रदेश	-10.2236
▁खान	-10.2236
तरङ्ग	-10.2239
▁यया	-10.2244
िकया	-10.2245
७८	-10.2246
त्ति	-10.2248
▁परम्	-10.2248
सम्प्रदायस्य	-10.225
▁बु	-10.2251
▁प्राध्यापक	-10.2251
▁व्यवहारः	-10.2252
विरचित	-10.2254
सञ्चार	-10.2255
K	-10.2257
▁गतिः	-10.2257
▁विधाय	-10.2258
ागत	-10.226
कल्	-10.2266
▁वेदस्य	-10.2267
▁पूर्वदिशि	-10.2268
▁निहित	-10.2269
▁केश	-10.2269
▁महता	-10.2271
कृ	-10.2273
▁प्रकाराः	-10.228
तमा	-10.228
कीर्ति	-10.2284
▁रक्षणं	-10.229
▁नित्यं	-10.2291
सम्पन्न	-10.2292
▁राष्ट्रपतिः	-10.2293
▁अनुसारं	-10.2294
पतिः	-10.2295
▁ननु	-10.2301
७९	-10.2302
▁सर्वेभ्यः	-10.2303
▁आक्रमणं	-10.2305
ागम	-10.2307
▁a	-10.2308
▁याज्ञवल्क्य	-10.2312
दीपिका	-10.2314
क्रियायाः	-10.2317
माध्यम	-10.2317
▁अभिप्रायः	-10.2319
ानन्तरम्	-10.2319
▁स्थितस्य	-10.232
▁भवितुमर्हति	-10.232
मनोविज्ञान	-10.2321
▁जायन्ते	-10.2321
▁नितरा	-10.2325
▁ऑफ	-10.2326
भागस्य	-10.2327
▁दीक्षा	-10.2328
भ्यास	-10.2328
▁तिरु	-10.2328
कौ	-10.233
▁साध्य	-10.2332
मुत्	-10.2334
▁औद्योगिक	-10.2338
वाचक	-10.2346
र्वा	-10.2348
▁लवण	-10.2351
नाडी	-10.2357
फा	-10.2365
▁L	-10.2366
तुः	-10.2372
मल्ल	-10.2373
▁with	-10.2374
▁शिथिल	-10.2374
▁उत्कृष्ट	-10.2375
▁अल्	-10.2376
▁निर्मीयते	-10.2376
▁जानु	-10.2376
मेध	-10.2378
▁साधना	-10.2383
ियन्	-10.2385
स्थः	-10.2387
कै	-10.2389
▁शासकः	-10.2392
▁निर्धारित	-10.2396
क्षेप	-10.2399
▁अस्मात्	-10.24
ोत्तरं	-10.24
न्यास	-10.24
ञ्	-10.2401
८८	-10.2401
▁कुम्भ	-10.2405
▁उद्यम	-10.2405
▁उदरस्य	-10.2408
de	-10.2413
▁Re	-10.242
स्‍य	-10.2421
▁निर्वाह	-10.2423
६६	-10.2425
ावस्थायां	-10.2426
▁सृष्टि	-10.2431
▁प्रण	-10.2435
▁केनापि	-10.2438
▁रागः	-10.2439
▁लिखितम्	-10.2444
▁क्षमा	-10.2449
कान्त	-10.2451
▁धर्मसूत्र	-10.2453
▁राममोहन	-10.2454
संस्थान	-10.2457
▁व्यक्तित्वं	-10.2458
▁p	-10.2459
६९	-10.2461
▁जनगणनानुगुणं	-10.2463
▁अहमदाबाद	-10.2463
्येव	-10.2472
▁अन्यः	-10.2477
णाम्	-10.248
▁वर्णित	-10.2481
्यो	-10.2481
५७	-10.2482
▁ब्रह्मा	-10.2484
▁वर्धमान	-10.2488
▁स्वीक्रियते	-10.2489
▁कः	-10.2489
दायक	-10.249
५८	-10.249
▁दृष्ट्या	-10.2491
▁क्षेत्रम्	-10.2496
▁तेषाम	-10.2496
▁कर्तव्यम्	-10.2498
▁केशव	-10.2501
ानुसार	-10.2504
ोद्यम	-10.251
ागार	-10.2517
▁आगत	-10.2521
समान	-10.2524
▁शीतल	-10.2524
नय	-10.2527
▁सुदृढं	-10.2528
▁निश्चय	-10.2529
रुचि	-10.2529
जान	-10.2533
५६	-10.2535
सिंहः	-10.2535
उत्	-10.2537
▁अर्थशास्त्र	-10.2538
पूर्वं	-10.2543
▁पृथ्वीराज	-10.2544
▁प्रथमवारं	-10.2544
्यर्थं	-10.2544
▁श्रीदीक्षित	-10.2547
▁इत्ययं	-10.2548
▁मिथ्या	-10.2551
▁अग्र	-10.2553
ाण	-10.2554
ीना	-10.2556
नेत्र	-10.2557
ास्	-10.2559
६५	-10.2563
▁पश्चिमदिशि	-10.2565
▁साम्प्रतं	-10.2566
६१	-10.2576
भी	-10.2582
वाणी	-10.2584
विष्णु	-10.2586
▁देवालय	-10.2588
▁बालकः	-10.2589
▁स्मरण	-10.259
शून्य	-10.2592
तत्त्वम्	-10.2597
ap	-10.2601
▁प्रपञ्च	-10.2602
३३	-10.2602
▁district	-10.2606
▁वैयाकरण	-10.2611
▁मेरुदण्डं	-10.2611
विवरण	-10.2615
्ति	-10.2616
▁सन्धिः	-10.2616
ेष्वपि	-10.262
▁विग्रह	-10.2623
▁रक्षण	-10.2626
स्तत्र	-10.2635
▁कार्यक्रम	-10.2637
मृत	-10.2638
▁दास	-10.2638
▁माम्	-10.264
▁बहूनां	-10.264
▁क्ल	-10.2641
▁बुध	-10.2643
▁मात्रा	-10.2643
▁प्रतिज्ञा	-10.2644
प्रान्त	-10.2644
श्य	-10.2644
जनैः	-10.2646
तुं	-10.2648
▁जु	-10.2654
करणं	-10.2654
पत्नी	-10.2659
▁पुत्रस्य	-10.2661
▁स्वीकृतवान्	-10.2663
राजा	-10.2665
▁आन्ध्रप्रदेश	-10.2668
मन्त	-10.2672
दासः	-10.2674
▁पुर	-10.2676
▁व्याकरणं	-10.2685
▁मूलं	-10.2685
6	-10.2688
कूट	-10.269
▁मयूर	-10.2691
८५	-10.2691
▁सम्पर्क	-10.2692
कर्मणि	-10.2693
▁हार्मोन	-10.2697
कोण	-10.2699
ावतार	-10.2702
▁प्रयास	-10.2704
व्याख्यान	-10.2707
▁उपलभ्यते	-10.271
क्ल	-10.271
▁आर्द्र	-10.2717
▁रामचन्द्र	-10.2718
रूपः	-10.272
ज्ञानम्	-10.2721
ut	-10.2722
नार	-10.2727
ानाञ्च	-10.273
३८	-10.2732
▁जनैः	-10.2735
▁अभाव	-10.2735
▁सूचित	-10.2738
ve	-10.2739
बाहु	-10.2739
▁India	-10.274
▁प्राप्ताः	-10.2744
ऽस्मिन्	-10.2745
▁O	-10.2746
गोचर	-10.2749
▁अपेक्षित	-10.275
साहित्यस्य	-10.2756
िण	-10.2756
वाद्य	-10.2758
▁वचनं	-10.2762
▁आद्य	-10.2763
शक्तिं	-10.2765
▁स्थायि	-10.2767
▁तदानीं	-10.2769
देशं	-10.2771
▁समाप्य	-10.2776
वस	-10.2777
▁सूर्यस्य	-10.2779
रिव	-10.2782
▁वसति	-10.2783
▁अनेकेषा	-10.2783
७६	-10.2786
लिया	-10.2787
▁प्रत्येकस्य	-10.2789
▁अवधारणा	-10.2789
▁पूर्वे	-10.2794
▁विषयेषु	-10.2796
▁अद्वितीय	-10.2796
भाषायाम्	-10.2799
केन	-10.2803
▁राममोहनस्य	-10.2805
▁मीटर्	-10.2806
दाह	-10.2807
वृक्ष	-10.2809
प्रदीप	-10.2809
▁मठ	-10.281
/)	-10.2813
िति	-10.2814
▁आग्रह	-10.2818
तत्त्वं	-10.2819
▁पूज्य	-10.282
▁km	-10.2823
▁बसयानानि	-10.2823
▁पृष्ठं	-10.2823
▁उपविष्ट	-10.2826
विवाह	-10.2828
▁एतयोः	-10.283
कान्	-10.2835
▁इन्द्रः	-10.2836
▁अवतार	-10.2836
रूपक	-10.284
तुल्य	-10.2842
र्ड्	-10.2842
▁मण्डलानि	-10.2844
▁ऋतु	-10.2845
▁व्यावहारिक	-10.2848
▁अयोध्या	-10.2854
▁३२	-10.2857
▁वृषभ	-10.2857
वृक्षः	-10.2858
▁कर्त्तव्य	-10.2867
▁सत्यं	-10.2868
▁तनावस्य	-10.2869
▁सैनिक	-10.287
व्याख्या	-10.2871
ac	-10.2873
▁सन्तोष	-10.2876
वंशावली	-10.2876
िर्	-10.2876
▁भव्य	-10.2876
▁तासु	-10.2878
°	-10.288
▁प्रदातुं	-10.288
ीनाम्	-10.2882
▁२९	-10.2884
▁कुत्रचित्	-10.2884
▁डी	-10.2887
समाज	-10.2888
▁बोधयति	-10.2889
▁इन्द्रियाणि	-10.2891
यन्तः	-10.2893
द्व	-10.2899
कृष्ट	-10.2901
वाड	-10.2901
विश्वविद्यालये	-10.2907
▁तृतीये	-10.2907
▁जप	-10.291
▁चिन्तनं	-10.2913
▁व्याकरणम्	-10.2919
सन्धिः	-10.2919
निष्ठा	-10.2921
भूता	-10.2922
संख्या	-10.2928
▁पृथ्वी	-10.2937
all	-10.2937
▁मूलप्रवृत्ति	-10.2937
▁पुणे	-10.2939
५३	-10.2941
▁महावीरस्य	-10.2943
▁बाहु	-10.2943
िष्ठ	-10.2952
▁भागाः	-10.2953
▁शिलालेख	-10.2954
जनानाम्	-10.2955
जयन्ती	-10.2957
क्षि	-10.2957
▁तत	-10.2957
▁मस्तिष्कस्य	-10.2958
ामृत	-10.2961
लङ्	-10.2961
▁किलोमीटर्	-10.2973
▁मार्गदर्शनं	-10.2975
मभवत्	-10.2976
३२	-10.2976
्यर्थ	-10.2977
▁पर्यन्तम्	-10.298
▁लो	-10.2987
▁श्वसनं	-10.2996
गर्भ	-10.2998
▁आघात	-10.3006
▁जित	-10.3007
५९	-10.3007
ीर	-10.3011
▁कर्मणः	-10.3016
▁सर्वकारस्य	-10.3016
▁पर्ण	-10.3017
▁अभ्यासं	-10.3022
मम	-10.3023
९८	-10.3025
क्रान्त	-10.3025
▁शिक्षणं	-10.3027
▁खल्व	-10.3028
▁चम्पा	-10.303
▁पक्षस्य	-10.3031
▁पतन	-10.3034
यामः	-10.3038
ार्थे	-10.3039
▁आसनस्य	-10.304
▁मनसा	-10.304
▁तन्नाम	-10.304
▁विकार	-10.3041
▁चतुर	-10.3042
▁प्रकाशन	-10.3043
प्रथम	-10.3045
ऽस्य	-10.3046
▁सुप्रसिद्ध	-10.3048
▁तारा	-10.3049
▁प्रेरित	-10.3055
▁प्रतिशतं	-10.3057
▁प्रयुज्यते	-10.3058
कृति	-10.3058
साम	-10.3059
▁महत्त्वम्	-10.3061
▁दर्शयति	-10.3061
ानुकूल	-10.3072
विष	-10.3074
▁महत्त्वपूर्णः	-10.3076
ेनापि	-10.3078
याश्च	-10.3078
▁संरक्षण	-10.308
▁दूरं	-10.3081
रक्षक	-10.3085
▁रमणीय	-10.3086
▁प्रशस्त	-10.3087
▁तीक्ष्ण	-10.3087
ार्ध	-10.3087
जायत	-10.3087
▁निर्वाचन	-10.3089
▁तदनु	-10.3091
ान्न	-10.3091
▁वाणिज्य	-10.3095
▁पराशर	-10.3097
▁सती	-10.3098
मूर्ति	-10.3099
नामके	-10.3101
मुद	-10.3102
▁शिक्ष	-10.3103
रहितः	-10.3104
▁नृप	-10.3104
भो	-10.3109
▁पूर	-10.311
▁अद्यत्वे	-10.3111
▁व्यवस्थित	-10.3112
तैल	-10.3113
हेतु	-10.3113
▁अलिखत्	-10.3113
▁भेदः	-10.3118
नर	-10.3121
शुक्ल	-10.3121
लू	-10.3121
▁निरोध	-10.3124
रस्ति	-10.3126
▁व्यायाम	-10.3132
प्रबन्ध	-10.3133
ver	-10.3135
ताल	-10.3136
▁प्रविष्ट	-10.3137
▁घोष	-10.3139
तार	-10.314
५४	-10.3141
▁निकट	-10.3143
रात्र	-10.3144
▁१९४७	-10.3146
▁J	-10.315
▁ख्रीष्टाब्द	-10.3151
▁उत्तमं	-10.3154
▁प्रदत्ता	-10.3158
▁जनान्	-10.3158
▁सङ्कल्प	-10.3165
▁६०	-10.3167
समस्या	-10.3172
▁कौ	-10.3172
▁translation	-10.3173
▁प्रवर्धयति	-10.3173
▁समुचित	-10.3174
▁पार्वती	-10.3175
दीक्षित	-10.3177
▁परिचयात्मक	-10.3177
▁सुखं	-10.3178
▁पुस्तकं	-10.3178
मयी	-10.318
ारूढ	-10.318
▁गान्धि	-10.3184
लम्ब	-10.3185
▁प्रमाणं	-10.3187
ाध्याये	-10.3189
▁आदौ	-10.3189
सत्	-10.3191
परिवार	-10.3192
गड	-10.3193
▁भूमेः	-10.3193
पद्धति	-10.3198
सिद्धि	-10.32
स्मरण	-10.3203
▁रु	-10.3203
▁स्थितिं	-10.3205
नम	-10.3206
▁सत्यपि	-10.3206
▁20	-10.3207
▁U	-10.3208
ादपि	-10.3209
नौ	-10.3213
पत्य	-10.3214
▁राजकुमार	-10.3217
ल्स्	-10.322
४९	-10.3223
▁दीर्घकाल	-10.3225
▁सृष्ट	-10.3228
20	-10.323
▁महत्वपूर्ण	-10.3231
▁आधिकारिक	-10.3232
हरि	-10.3232
▁क्वचित्	-10.3233
▁प्रोत्साहयति	-10.3234
नयन	-10.3235
बहु	-10.3237
▁आगम	-10.3238
▁विशिष्टं	-10.3241
▁अनिवार्य	-10.3241
पश्चिम	-10.3241
▁समागत	-10.3245
घट	-10.3247
▁आश्चर्य	-10.325
▁शस्त्र	-10.3256
▁अनुमति	-10.3256
ोत्सवः	-10.3256
▁प्रणेता	-10.3259
▁एकम्	-10.326
कारणात्	-10.3263
▁२०००	-10.3265
शुद्धि	-10.3267
▁भवन	-10.3271
▁मापन	-10.3275
▁सुन्दरं	-10.3279
▁नाटकस्य	-10.3281
▁शर	-10.3281
▁ग्रन्थेषु	-10.3285
▁स्थायिभाव	-10.3285
▁पुरस्कार	-10.3291
▁भीष्म	-10.3292
जीवने	-10.3293
▁मण्डलेषु	-10.3295
▁रवि	-10.3296
रक्ष	-10.33
बुद्ध	-10.3301
ाकाश	-10.3304
▁नाट्यशास्त्र	-10.3308
▁आव	-10.3311
र्थं	-10.3311
▁घोषणा	-10.3313
▁केचित्	-10.3313
▁सुधार	-10.3313
शाख	-10.3314
▁ध्वज	-10.3319
विशेषाः	-10.3324
करोति	-10.3324
▁विशिष्टा	-10.3327
ाइ	-10.3328
▁चकार	-10.3331
▁प्रधानमन्त्री	-10.3332
िकाः	-10.3333
ास्तु	-10.3335
▁चालुक्य	-10.3338
8,	-10.3339
▁पात	-10.334
▁इम	-10.3342
▁प्रत्युत	-10.3345
ैक्य	-10.3346
▁स्वाभाविक	-10.3348
▁समीपस्थं	-10.3349
▁भवे	-10.3352
▁वर्धन	-10.3354
वर्मा	-10.3358
▁चित्राणि	-10.336
▁चेन्नै	-10.3361
भाई	-10.337
▁महोदयः	-10.3372
▁ताप	-10.3375
and	-10.3375
▁श्याम	-10.3375
शास्त्रं	-10.3379
विरुद्ध	-10.338
▁अन्यथा	-10.3382
▁मार्च	-10.3384
▁स्थानानि	-10.3385
▁अनन्तर	-10.3386
▁शकुन्तला	-10.3391
ाश्रित	-10.3392
▁ज्योति	-10.3395
विदुष	-10.3399
संरक्षण	-10.3401
▁प्रमाणम्	-10.3404
्ये	-10.3412
चिह्न	-10.3412
विधानसभाक्षेत्रं	-10.3413
विश्वास	-10.3413
▁पर्याय	-10.3414
▁978-81-8	-10.3414
प्रणाली	-10.3418
व्यवस्थायाः	-10.342
▁सम्मिलित	-10.3421
▁उपग्रह	-10.3425
▁कठिन	-10.3426
▁वराहमिहिर	-10.3427
▁नायकः	-10.3428
गौरव	-10.3431
निवेश	-10.3435
▁टो	-10.3436
ाग्र	-10.3441
९७	-10.3442
▁जना	-10.3443
प्रभा	-10.3443
▁कृताः	-10.3444
▁शुक्लपक्ष	-10.3445
▁इतिहासे	-10.3446
नाडु	-10.3447
▁सर्वा	-10.3447
लेखक	-10.3449
▁संस्कृतभारती	-10.345
▁सदस्यः	-10.3452
▁महादेव	-10.3452
साम्राज्य	-10.3453
▁पुस्तक	-10.3453
▁बर्	-10.3456
ट्र	-10.3457
▁लक्षणम्	-10.3457
केन्द्रं	-10.3458
चरित्र	-10.3459
▁स्थापित	-10.3459
मूर्तिः	-10.3462
▁अभ्य	-10.3463
ासुर	-10.3465
▁बहिर्	-10.3472
ष्टि	-10.3472
▁गच्छ	-10.3477
▁अधिकाः	-10.348
▁मूलपाठ	-10.348
ho	-10.3484
वैज्ञानिक	-10.3485
▁कर्मफल	-10.3485
▁कोण	-10.3485
▁प्रभवति	-10.3489
▁मृत्तिका	-10.3491
▁शासनम्	-10.3493
▁निर्माणे	-10.3497
▁प्रीति	-10.3498
▁कोल	-10.3506
वर्गः	-10.351
▁जाताः	-10.351
▁न्यू	-10.3511
▁सौर	-10.3511
वर्त्त	-10.3512
नामकस्य	-10.3515
ाहार	-10.3515
लिका	-10.3515
▁तस्यैव	-10.3517
▁पट	-10.3523
▁शु	-10.3524
▁योगसूत्राण	-10.3528
▁चिर	-10.3528
▁सन्दर्भ	-10.353
▁कारागार	-10.3531
▁निवारयति	-10.3535
▁पालन	-10.3536
▁दक्षिणदिशि	-10.3537
▁उत्तरदिशि	-10.3537
▁एल्	-10.354
च्य	-10.354
▁स्फोट	-10.354
▁द्वितीयभागः	-10.354
▁दर्श	-10.3544
▁अधीन	-10.3545
ख्य	-10.3546
▁सेवां	-10.3547
▁२०१९	-10.3547
सामाजिक	-10.3548
ोध्यायस्य	-10.3551
▁परिणामः	-10.3553
वैदिक	-10.3553
काण्डे	-10.3556
दो	-10.3558
तत्व	-10.3562
मुच्यते	-10.3562
▁पठ	-10.3564
▁नगर्या	-10.3564
▁तिष्ठन्ति	-10.3567
पक्षः	-10.3575
महाराज	-10.3575
९५	-10.3577
ग्रन्थानां	-10.3578
पद्यते	-10.3578
▁घृत	-10.3581
▁विप्र	-10.3588
ान्वित	-10.3589
ग्रामः	-10.359
▁पीत	-10.3596
▁मूर्ति	-10.3596
जैन	-10.3597
▁भोपाल	-10.3598
▁जानन्ति	-10.3602
▁आगतवान्	-10.3603
दीर्घ	-10.3605
वाय	-10.3605
ोल्लेख	-10.3607
▁अणु	-10.3608
▁प्राणि	-10.361
▁सान्वय	-10.3612
▁स्पष्टतया	-10.3615
▁स्वभावः	-10.3615
▁माप	-10.3618
39-	-10.3622
3	-10.3625
▁वेदेषु	-10.3628
▁स्थापितः	-10.3628
▁वर्णः	-10.3638
ti	-10.364
▁श्रम	-10.364
▁योगी	-10.3641
▁त्रय	-10.3646
रम	-10.3648
▁कवेः	-10.3652
▁विष्णोः	-10.3654
▁अभ्यासकारिणः	-10.3659
▁अद्यतन	-10.366
▁बाह्यसम्पर्क	-10.3663
बलेन	-10.3664
▁मुक्ति	-10.3665
▁भवता	-10.3668
सदस्य	-10.3669
▁महावीर	-10.3673
▁अद्वैत	-10.3674
▁जनक	-10.3675
वातावरण	-10.3677
▁उत्तमः	-10.3677
रुण	-10.368
▁अङ्गीकृत	-10.368
ान्यपि	-10.3687
▁अनुभवति	-10.3688
▁भाष	-10.3688
▁वक्र	-10.3691
▁मूलतः	-10.3692
▁साम्राज्य	-10.3693
▁गीतानि	-10.3696
▁याच	-10.37
वृद्ध	-10.3708
▁चरित्र	-10.3709
आर्	-10.371
ोदर	-10.3714
▁भक्ताः	-10.3719
▁ललित	-10.3719
ॊ	-10.3721
8276-	-10.3721
▁निर्मान्ति	-10.3722
▁विष्णुः	-10.3722
▁केषुचित्	-10.3722
▁निःश्वासं	-10.3722
▁परिगण्यते	-10.3723
▁करोतु	-10.3723
मर्थ	-10.3724
न्ध	-10.3724
▁प्रथमखण्डः	-10.3724
▁पश्यन्तु	-10.3725
▁विख्यातः	-10.3726
▁अनया	-10.3727
▁स्वीकुर्वन्ति	-10.3727
▁दे	-10.3727
▁ग्रन्थेऽस्मिन्	-10.3729
▁उपयोगेन	-10.373
चिन्	-10.3733
ुत्तर	-10.3733
▁समाजे	-10.3735
▁प्रदेशेषु	-10.3737
लोप	-10.374
िष्यति	-10.3741
▁अचल	-10.3741
▁पुस्तकानि	-10.3746
▁नियमाः	-10.3748
▁विद्य	-10.3749
▁पर्वतः	-10.375
पतेः	-10.3757
▁पाकिस्तान	-10.3757
विषयाः	-10.3758
वर्षे	-10.3758
▁विद्यमानाः	-10.3764
▁सङ्घटन	-10.3766
तरा	-10.377
▁और	-10.3773
दन्त	-10.3773
दय	-10.3774
est	-10.3774
▁काण्ड	-10.378
प्राप्तेः	-10.3782
▁अवगन्तुं	-10.3785
कल्पना	-10.3785
▁क्रियमाण	-10.3787
▁राजशेखर	-10.3787
▁बालकस्य	-10.3791
▁अस्माभिः	-10.3793
▁सरलतया	-10.3796
▁वङ्ग	-10.3801
▁था	-10.3801
▁संन्यास	-10.3803
टिका	-10.3806
८७	-10.3808
▁प्राणिनः	-10.3813
सन्धि	-10.3815
▁दृश्यमान	-10.3815
स्त्रि	-10.3816
परिषदः	-10.3818
क्रीडायां	-10.382
ल्ड	-10.3821
चरितम्	-10.3823
▁ज्ञेय	-10.3824
गाम	-10.3828
३७	-10.383
▁इत्येतस्य	-10.3831
मुद्	-10.3841
स्तत्	-10.3842
दर्शनं	-10.3842
ाणा	-10.3844
▁अन्यत्	-10.3846
▁अय	-10.3847
▁स्थापयित्वा	-10.3848
▁विशद	-10.385
कृते	-10.385
▁ट्र	-10.3851
लिंग	-10.3853
ाक्ष	-10.3854
३६	-10.3857
▁वहति	-10.3857
९२	-10.3859
▁आङ्ग्लानुवादः	-10.386
▁घोर	-10.386
▁अधो	-10.3862
▁पुरुषार्थ	-10.3864
▁कोशिका	-10.3864
▁यक्ष	-10.3864
पाप	-10.3865
▁तस्माद्	-10.3867
७३	-10.3868
न्स	-10.3873
▁दृष्टिकोण	-10.3873
ात्मकः	-10.3874
जीवनं	-10.3875
▁भारद्वाज	-10.3877
▁तात्पर्यम्	-10.3877
ध्वन	-10.3881
▁विकल्प	-10.3881
४७	-10.3889
क्रमेण	-10.3889
वण	-10.3891
▁अन्वेषण	-10.3894
ाऽऽ	-10.3896
दृ	-10.3897
▁देशः	-10.3898
▁तिथि	-10.39
▁निर्मितानि	-10.3902
▁मान्यता	-10.3904
▁दक्ष	-10.3905
युक्तानां	-10.3905
▁फि	-10.3906
▁आयुर्वेद	-10.3906
निमित्तं	-10.3908
▁पक्षः	-10.391
रत	-10.391
लीला	-10.392
प्रवर	-10.3922
ोपाय	-10.3929
▁विध	-10.3931
त्मक	-10.3934
पर्वतः	-10.3934
म्बर	-10.3935
org	-10.3938
कालं	-10.3939
▁विभागः	-10.3939
▁गम्भीर	-10.3944
▁त्यक्त	-10.3946
याग	-10.3946
▁ख्याति	-10.3946
दिष्ट	-10.3946
ैत	-10.3947
ानेक	-10.395
▁मलयाळ	-10.3951
साध्य	-10.3951
३४	-10.3953
▁दिनानि	-10.3955
di	-10.3958
कर्माणि	-10.3959
▁वरुण	-10.3963
सत्त्व	-10.397
▁प्रासाद	-10.3971
ेभ्य	-10.3975
▁साध	-10.3977
ya	-10.398
▁महोदयस्य	-10.3982
▁समर्थः	-10.3984
पदस्य	-10.3984
▁अस्मिन्नेव	-10.3987
सल	-10.3987
▁कथावस्तु	-10.3989
क्षय	-10.3989
▁संस्कृतिः	-10.3989
▁गोप	-10.3991
शासक	-10.3993
तव्य	-10.3996
ce	-10.3996
▁परमात्मा	-10.3998
▁सर्वकारीय	-10.3998
स्वास्थ्य	-10.4004
▁पार्	-10.4005
▁अरुण	-10.401
▁सार्ध	-10.4013
वर्त	-10.4013
▁दिल्ली	-10.4014
▁वित्त	-10.4017
सित	-10.4018
मृग	-10.4019
▁द्वैत	-10.402
▁कर्तु	-10.402
आत्म	-10.4021
▁विस्तृतं	-10.4021
ध्वनि	-10.4022
▁स्थापन	-10.4025
शक	-10.4026
▁अर्जुनः	-10.4026
▁यशो	-10.4028
ितुम्	-10.403
मेवा	-10.4031
mo	-10.4034
▁एतान्	-10.4037
क्य	-10.404
▁अभूवन्	-10.404
▁न्यूनीकर्तुं	-10.404
▁अर्हन्ति	-10.4041
शाह	-10.4042
▁भजते	-10.4044
▁करिष्यति	-10.4048
▁पुस्तके	-10.4054
▁शर्करा	-10.4056
▁निर्णयः	-10.4057
स्थितौ	-10.4059
ानुसारम्	-10.4059
धर्मः	-10.406
पुराणे	-10.4065
▁आचार्यः	-10.4065
▁विदुषा	-10.4074
▁दानं	-10.4076
▁ख्यातः	-10.4077
▁भूमिः	-10.408
शतकस्य	-10.408
▁मुख्यमन्त्री	-10.4082
ाई	-10.4085
▁३५	-10.4087
▁अयमेव	-10.4089
▁माल	-10.409
▁आन	-10.4092
▁महाभारतस्य	-10.4097
▁परिसर	-10.4099
▁थ	-10.4101
शान्ति	-10.4105
ا	-10.4105
यितु	-10.4106
▁व्याकरणस्य	-10.4107
सम्बन्धि	-10.4109
▁शाङ्करभाष्यम्	-10.4109
▁स्युः	-10.4112
ानामपि	-10.4113
▁शाप	-10.4118
ेद	-10.4118
▁तेलुगु	-10.4119
▁दुर्बल	-10.412
▁नैतिक	-10.412
लभ्य	-10.4122
▁वस्तुनः	-10.4123
यन्त	-10.4123
▁साधक	-10.4125
▁स्वयम्	-10.4128
िकः	-10.413
गुणाः	-10.4132
परिमाण	-10.4135
▁विवरण	-10.4142
मोक्ष	-10.4144
वन्ति	-10.415
▁ब्रह्मचर्य	-10.4154
wa	-10.4154
८९	-10.4156
▁काव्यस्य	-10.416
▁रेलयान	-10.4161
ोच्च	-10.4163
तिलक	-10.4165
ag	-10.4166
▁छाया	-10.4167
▁अग्रिम	-10.417
सिद्धान्तस्य	-10.417
ज्योतिष	-10.4171
भेदाः	-10.4171
▁आवश्यक	-10.4172
▁भागेषु	-10.4174
लव	-10.4174
▁प्रविश्य	-10.4176
निवास	-10.4185
▁हिमालय	-10.4186
▁विमानस्थानकं	-10.4188
▁लेखकः	-10.4193
▁गुरुत्वाकर्षण	-10.4195
▁परिवहन	-10.4196
ka	-10.4198
सरोवर	-10.4198
▁गौड	-10.4201
▁अज्ञात	-10.4207
▁गङ्ग	-10.4209
स्तरस्य	-10.4211
▁संग्रह	-10.4215
पट्ट	-10.4216
ुल	-10.4218
देशेषु	-10.4219
▁रासायनिक	-10.4227
▁त्रयाणा	-10.4227
▁गुरोः	-10.4228
महानगराय	-10.423
▁टी	-10.423
ી	-10.4235
सूत्राणां	-10.4236
▁किमर्थं	-10.4238
मना	-10.4239
▁अनुसन्धान	-10.4242
रूपम्	-10.4242
▁योजित	-10.4242
▁आहत्य	-10.4243
▁आहारः	-10.4245
णः	-10.4246
▁जीवनी	-10.4246
▁चतु	-10.4246
नेक	-10.4249
विज्ञानस्य	-10.4252
▁दो	-10.4252
▁इत्यादिभ्यः	-10.4252
▁सुलभ	-10.4252
▁संस्करण	-10.4255
▁श्रीकृष्णस्य	-10.4255
मुख्य	-10.4259
त्वमेव	-10.4261
विंशति	-10.4261
▁साधकः	-10.4261
मिता	-10.4265
▁अनुवादः	-10.4267
गांव	-10.427
▁श्रीराम	-10.4271
व्यक्तित्व	-10.4271
परायण	-10.4272
गिरिः	-10.4272
च्छेद	-10.4275
पत्तन	-10.4277
वत्सर	-10.4281
▁वाद्य	-10.4282
चेतन	-10.4282
▁प्रणय	-10.4284
▁स्वच्छ	-10.4284
स्तद	-10.4285
स्नायुः	-10.4285
ly	-10.4285
▁तुल्य	-10.4287
▁परिमित	-10.4292
▁जनवरी	-10.4292
19	-10.4295
वृक्षस्य	-10.4296
▁तस्मिन्नेव	-10.4296
▁शिरसि	-10.4302
सामग्री	-10.4305
▁हंस	-10.4306
दौ	-10.4306
लेखन	-10.4307
▁पादे	-10.4309
▁देशेषु	-10.431
▁सङ्गम	-10.4313
▁परमेश्वर	-10.4316
चालन	-10.4318
U	-10.4321
10	-10.4321
▁आज्ञा	-10.4324
विश्वविद्यालय	-10.4326
▁प्रारब्ध	-10.4329
पुरस्य	-10.4332
८३	-10.4333
हल	-10.4334
ख्या	-10.4335
▁तण्डुल	-10.4338
▁उत्तरभागे	-10.434
▁शाह	-10.4345
माया	-10.4347
▁उद्देश्य	-10.4348
ार्क	-10.4351
गतिः	-10.4352
▁जलम्	-10.4355
▁कार्ये	-10.4358
५५	-10.4362
टु	-10.4363
म्बु	-10.4363
भे	-10.4364
विषयाणां	-10.4364
▁पै	-10.4365
ત	-10.4369
▁कम्पनी	-10.437
▁पृथिवी	-10.4371
▁Sri	-10.4372
▁साकं	-10.4372
मुखी	-10.4379
सम्बद्धाः	-10.4379
▁वै०	-10.4382
▁कार्यस्य	-10.4386
लं	-10.4388
▁धृत	-10.4389
शान्त	-10.4392
मथ	-10.4392
▁व्यतीत	-10.4393
▁विषयस्य	-10.4395
भूमौ	-10.4397
▁दूरदर्शन	-10.4397
▁इत्येते	-10.4401
▁समाधान	-10.4402
▁मानसिकं	-10.4403
स्त्य	-10.4404
▁प्रस्ताव	-10.4405
▁वारं	-10.4406
▁An	-10.4406
भक्त	-10.4407
▁उदाहरणानि	-10.4408
▁तीर्थङ्कर	-10.4409
▁अभ्यासस्य	-10.441
गि	-10.4413
▁उपाय	-10.4415
▁प्रत्यक्षं	-10.4416
▁काव्ये	-10.4421
▁ध्यानस्य	-10.4421
सप्त	-10.4423
vi	-10.4425
▁साक्षात्कार	-10.4427
विहार	-10.4429
▁वृक्षस्य	-10.4429
घ्न	-10.443
▁प्रगति	-10.4439
राष्ट्रिय	-10.444
▁प्रविशति	-10.4441
तदा	-10.4442
पिण्ड	-10.4443
लोचन	-10.4444
▁द्वारका	-10.4444
विद	-10.4445
▁6	-10.4445
▁प्रभावितः	-10.4446
▁शिर	-10.4449
▁पुराणेषु	-10.4451
▁सहायक	-10.4452
मौ	-10.4454
▁विषया	-10.4455
▁चरम	-10.4456
▁प्रदेशस्य	-10.4457
ख्	-10.4457
▁युव	-10.446
ालङ्कारः	-10.4464
▁कपिल	-10.4466
▁R	-10.4468
▁पुन	-10.4468
▁खगोलशास्त्र	-10.4478
सङ्	-10.4483
ग्नि	-10.4486
नाल	-10.4487
गच्छ	-10.449
▁संस्कृति	-10.449
भाज	-10.4491
भवन	-10.4493
ञ्चेति	-10.4498
तुर	-10.4501
भ्यो	-10.4504
▁प्रत्येकस्मिन्	-10.4506
▁जीर्ण	-10.4506
▁निखिल	-10.4507
▁ज्वर	-10.4508
▁उपयुक्त	-10.4509
९६	-10.4511
▁प्रायेण	-10.4512
ies	-10.4513
वु	-10.4515
जाति	-10.4517
ून्	-10.4522
▁जोखिम	-10.4523
▁वह	-10.4523
नलिका	-10.4525
विष्ट	-10.4528
▁सीमित	-10.4528
स्थे	-10.4535
सूक्ष्म	-10.4536
▁निष्पन्न	-10.4537
्याम्	-10.4538
संस्कृतेः	-10.4539
निर्धारण	-10.4541
▁राष्ट्रियराज	-10.4542
▁क्र	-10.4545
ैन	-10.4546
▁शासनकाले	-10.4547
▁विसर्गसन्ध	-10.4548
▁निबन्ध	-10.4548
एत	-10.4551
▁सर्वकारः	-10.4552
वृत	-10.4553
खिल	-10.4556
ितवती	-10.4559
▁आह	-10.456
रोह	-10.456
स्यां	-10.4564
▁दत्तम्	-10.4566
▁सम्पादित	-10.4567
▁समर्पित	-10.4567
▁सङ्घर्ष	-10.457
पाणि	-10.4571
▁शक्त	-10.4571
▁प्रदाति	-10.4572
यर्	-10.4572
ान्तरे	-10.4574
▁प्रबन्धन	-10.4574
▁देवानां	-10.4576
वर्णनं	-10.4577
▁नाशः	-10.4578
र्द	-10.458
▁आचरण	-10.4581
ेषा	-10.4581
▁पुत्राः	-10.459
▁मणिपुर	-10.4591
▁मगध	-10.4593
▁विवेचन	-10.46
माधव	-10.4602
▁नेता	-10.4604
ूनां	-10.4608
महाविद्यालय	-10.461
चूर्ण	-10.4611
▁स्प	-10.4615
उत्तर	-10.4615
▁मनु	-10.462
आसन	-10.4622
▁वत्स	-10.4629
प्रचार	-10.4631
▁रहस्य	-10.4633
संग्रह	-10.4639
संवेदन	-10.4639
▁तनावः	-10.464
खण्डे	-10.4642
▁मौ	-10.4642
▁दूत	-10.4644
▁काय	-10.4645
ायाम्	-10.4646
▁यच्च	-10.4646
नाथस्य	-10.4649
▁चतुर्षु	-10.465
▁संशय	-10.465
मादाय	-10.4651
▁कौशल	-10.4654
वृद्धि	-10.4655
▁तत्कालीन	-10.4655
स्क	-10.4655
▁सङ्ग्रह	-10.4657
▁भाष्यार्थ	-10.4661
यन्ते	-10.4661
▁यजुर्वेद	-10.4661
मानः	-10.4661
▁वेदानां	-10.4664
फ़	-10.4665
▁शुक्ल	-10.4665
▁पाणिनेः	-10.4665
पूजन	-10.4669
▁लु	-10.4672
▁बङ्गाल	-10.4674
▁अहङ्कार	-10.4675
▁देव्याः	-10.4675
ऐ	-10.4676
नगर्या	-10.4677
▁घटक	-10.4677
विषया	-10.468
▁एशिया	-10.4681
▁क्व	-10.4685
क्रमः	-10.4686
लोके	-10.4688
रज	-10.4689
ोऽन्य	-10.4689
चत्वारिंश	-10.469
सङ्घस्य	-10.469
▁एम	-10.4691
▁अङ्गुली	-10.4692
्र	-10.4693
थ्	-10.4695
िकी	-10.4697
▁प्रभव	-10.4697
▁मीटर	-10.4708
▁मिल	-10.4709
चौ	-10.4709
_	-10.4709
▁वो	-10.4711
साहित्ये	-10.4712
स्माकं	-10.4713
▁साहस	-10.4713
फलक	-10.4714
▁समकालीन	-10.4716
▁योजन	-10.4716
पुरं	-10.4718
वेदना	-10.4719
व्यम्	-10.472
▁बलि	-10.472
▁क्षेत्रस्य	-10.4721
▁शताब्द्याः	-10.4721
▁विषयाणां	-10.4722
ून	-10.4722
▁पालनं	-10.4722
▁कापि	-10.4727
▁विश्वामित्र	-10.4727
▁वेदाः	-10.4727
व्यक्त	-10.4729
▁न्यूनं	-10.4733
ियन	-10.4737
अङ्ग	-10.4737
▁निर्गत	-10.4741
▁उत्साह	-10.4743
▁उपन्यास	-10.4745
प्रान्ते	-10.4745
▁शीघ्रं	-10.4746
पुण्य	-10.4747
मङ्गल	-10.4748
श्र	-10.4749
पत्रिका	-10.4751
tion	-10.4751
▁नट	-10.4752
विन्यास	-10.4753
▁आवश्यकम्	-10.4755
ent	-10.4755
श्रवण	-10.476
▁अध्याय	-10.4761
ास्त्र	-10.4763
▁शयन	-10.4764
▁संशोधनं	-10.4764
पक्षे	-10.4767
र्स्	-10.4769
प्रकरण	-10.4769
▁राजगृह	-10.4772
▁निर्मापित	-10.4773
▁अहिंसा	-10.4774
▁यव	-10.4779
र्त्त	-10.478
▁सौम्य	-10.4781
▁मानवस्य	-10.4785
▁कर्णाटकराज्यस्य	-10.4785
▁तिल	-10.4789
▁ज्ञातवान्	-10.4793
▁कव	-10.4794
रास	-10.4799
▁रुचि	-10.4801
ादिना	-10.4803
▁गृह्णाति	-10.4808
▁समस्याः	-10.4808
िन्द	-10.4811
त्रयं	-10.4814
▁साहित्यिक	-10.4815
नुसारेण	-10.4816
पूर्वक	-10.4817
र्जुन	-10.4817
▁निमित्त	-10.4819
वेष	-10.4823
त्तु	-10.4826
▁हृदयस्य	-10.4827
भारते	-10.4827
em	-10.4829
▁यथ	-10.4831
▁एतैः	-10.4833
▁धीर	-10.4834
फे	-10.4834
गच्छति	-10.4835
▁आकर्षक	-10.4836
▁डो	-10.4836
विग्रह	-10.4838
▁सक्रिय	-10.484
वादस्य	-10.484
ावती	-10.4841
▁रेलस्थानकम्	-10.4845
▁उत्पन्न	-10.4845
दू	-10.4847
▁एतदतिरिक्त	-10.4849
▁स्थापयन्तु	-10.4849
▁काश्चन	-10.4849
▁कदाचन	-10.4849
ध्वज	-10.485
▁अध्ययनम्	-10.4855
▁मनोविज्ञानस्य	-10.4858
▁आविष्कार	-10.4859
शास्त्री	-10.4862
वत्याः	-10.4862
विवेचन	-10.4863
▁पदार्थाः	-10.4864
▁पुष्पाणि	-10.4864
वर्धक	-10.4865
▁Ma	-10.4869
क्ति	-10.4869
महाद्वीपे	-10.4871
ानन्तर	-10.4871
▁एस	-10.4872
▁विरोधं	-10.4874
ुर्	-10.4875
मार्	-10.4876
▁स्वा	-10.4876
तृतीय	-10.4876
ाख्यान	-10.4877
पर्वणि	-10.4877
कथायाः	-10.4878
▁मकर	-10.4883
ारः	-10.4885
▁गायक	-10.4889
प्रपञ्च	-10.4894
४६	-10.4896
▁प्रवृत्तिः	-10.4896
धात	-10.4897
९१	-10.4898
▁ब्रिटिश	-10.4898
ाधारित	-10.4903
ग्रस्त	-10.4903
▁समास	-10.4911
स्स	-10.4911
▁प्रामाणिक	-10.4912
ेतिहास	-10.4913
▁विंशति	-10.4913
महाकाव्य	-10.4915
▁मन्दं	-10.4915
▁डिग्रि	-10.4918
ोच्चारण	-10.4919
ે	-10.4919
▁वर्त्तते	-10.4919
▁शतपथब्राह्मण	-10.492
▁साधित	-10.4921
ph	-10.4922
सर्प	-10.4923
ाबाद्	-10.4925
▁नितम्ब	-10.4928
▁अनुसारम्	-10.4929
▁आकृष्ट	-10.4929
तेज	-10.4932
▁चतुर्थे	-10.4935
दर्श	-10.4936
▁अन्यैः	-10.4938
▁ब्रिटिश्	-10.494
▁हठयोगः	-10.4942
▁तीरे	-10.4943
विनाश	-10.4945
▁यमुना	-10.4946
▁गुहा	-10.4949
▁लिखितः	-10.495
डिया	-10.4951
▁अना	-10.4957
सामर्थ्य	-10.4958
पत्रं	-10.4959
▁इन्दिरा	-10.4968
▁m	-10.4969
▁सिद्धान्तस्य	-10.4972
ताप	-10.4974
लक्ष्मी	-10.4977
▁भाषायाः	-10.4979
▁चित्तस्य	-10.498
ीकरणस्य	-10.4985
योज्य	-10.4987
▁शाश्वत	-10.499
▁ऋजु	-10.499
▁न्यूनीकरोति	-10.4991
▁गोवा	-10.4996
▁भूकम्प	-10.4997
▁सूच	-10.5001
मोद	-10.5004
श्रुत	-10.5004
▁शताब्द	-10.5004
मतं	-10.5005
▁स्थापिता	-10.5008
पूर्णं	-10.5008
▁भूतानि	-10.5013
ेन्	-10.5017
▁नगरी	-10.5022
▁नाटके	-10.5022
महासागर	-10.5024
▁कविता	-10.5024
▁कुर्मः	-10.5028
चल	-10.5028
ऊ	-10.5033
▁भाष्यकार	-10.5035
भुज	-10.5037
▁कृतिः	-10.5039
द्वये	-10.5043
▁अन्यस्य	-10.5051
▁नैक	-10.5051
va	-10.5051
वर्गस्य	-10.5051
ळि	-10.5053
लक्षणं	-10.5054
स्थलम्	-10.5054
नाट्य	-10.5059
▁ग्वालियर	-10.5061
▁उचित	-10.5065
▁उक्त्वा	-10.5065
▁लण्डन्	-10.5066
▁मन्	-10.5067
▁श्व	-10.5068
पर्ण	-10.507
▁रेलस्थानकं	-10.507
स्त्र	-10.5072
▁अनुभवन्ति	-10.5075
▁सिंहासन	-10.5075
▁प्रश	-10.5077
शैल्याः	-10.5079
जित	-10.508
ळ्ळ	-10.5082
▁or	-10.5084
se	-10.5087
ळ्	-10.5088
▁पितर	-10.509
▁सङ्	-10.509
▁अपराध	-10.5093
▁वर्ध	-10.5094
▁तनाव	-10.5096
ण्डी	-10.5097
▁वाच	-10.5099
ाण्य	-10.5099
रूपे	-10.5102
सौन्दर्य	-10.5102
यानानि	-10.5104
▁विरुद्ध	-10.5104
▁समुपलब्ध	-10.5117
स्मा	-10.5121
▁चतुर्णा	-10.5124
ात्मना	-10.5134
▁प्रारम्भे	-10.5141
वर्षीयः	-10.5143
▁परित्यज्य	-10.5146
ine	-10.5146
▁अभिप्राय	-10.5146
▁कृष्णा	-10.5148
त्रिंशत्	-10.5148
टिक	-10.5148
▁तुलना	-10.515
▁लीला	-10.5151
▁चैव	-10.5151
र्द्ध	-10.5152
गाव	-10.5153
▁द्विविध	-10.5155
भवति	-10.516
पेट	-10.5161
▁निवस	-10.5161
घटना	-10.5162
एस्	-10.5164
▁माध्यम	-10.5164
ूल	-10.5164
▁विषम	-10.5164
▁अनुष्ठान	-10.5165
▁विलक्षण	-10.5167
स्तरीय	-10.5169
▁भुज	-10.517
▁ताड	-10.5171
▁सन्दर्भे	-10.5172
▁गन्धर्व	-10.5172
▁चूर्ण	-10.5173
ang	-10.5176
दृष्टिकोण	-10.5177
▁रक्षित	-10.5179
▁नागरिक	-10.5182
▁सुरक्षित	-10.5183
मण्डप	-10.5186
▁सरस	-10.5187
▁तृतीया	-10.5188
▁प्रदर्शन	-10.5191
भोज	-10.5193
ीन्	-10.5194
नियन्त्रण	-10.5196
▁हिंसा	-10.5198
ऽत्र	-10.52
▁प्रारभत	-10.5206
▁नामकरणं	-10.5206
▁बह	-10.5206
लिप	-10.5208
▁प्रतिपादितम्	-10.521
वरी	-10.521
▁लय	-10.5212
दर्शक	-10.5213
▁पर्य	-10.5215
▁स्वतः	-10.5215
ाभिधान	-10.5216
कोटि	-10.5218
▁दिवसे	-10.5219
ga	-10.522
▁स्राव	-10.5223
▁संस्थान	-10.5223
ावयव	-10.5228
जीवनम्	-10.5228
चय	-10.5229
धे	-10.523
धृत	-10.523
लोम	-10.523
▁चन्द्रः	-10.5232
▁तनावं	-10.5233
कविः	-10.5234
त्सु	-10.5236
तीर	-10.5236
मेत	-10.5237
व्यक्ति	-10.5238
▁भूय	-10.5239
व्यास	-10.524
▁नियमः	-10.5242
वस्तूनि	-10.5242
तत्त्वस्य	-10.5244
पर्	-10.5249
▁सम्पत्ति	-10.525
ण्डा	-10.525
तक	-10.5251
बल्	-10.5254
वैभव	-10.5257
उपनिषत्	-10.5257
▁वेङ्कट	-10.526
▁वने	-10.5263
▁सम्भावना	-10.5264
अस्थि	-10.5264
▁अन्तर्गतं	-10.5264
▁कबीर	-10.527
▁अविद्या	-10.5271
प्रान्तस्य	-10.5274
▁तृतीयः	-10.5274
भट	-10.5277
ड़	-10.5278
▁पौ	-10.528
▁उपयुज्यन्ते	-10.528
गोष्ठी	-10.5283
▁दुःखं	-10.5284
▁क्रियन्ते	-10.5286
▁भागवत	-10.5293
▁स्वरूपम्	-10.5293
▁चल	-10.5294
गतं	-10.5294
▁अध	-10.5294
▁युगे	-10.5295
▁ऋग्वेदे	-10.5298
कन्या	-10.5299
▁कारणानि	-10.5301
▁रीति	-10.5305
▁पठित	-10.5307
▁संयम	-10.5308
किरण	-10.5309
▁स्वपुत्र	-10.5313
थी	-10.5314
मग्न	-10.5317
▁प्राणिनां	-10.5319
▁समाधानं	-10.5321
ादय	-10.5325
▁पल	-10.5327
ख्याति	-10.5327
▁प्रतिष्ठित	-10.5331
ावरण	-10.5332
न्ना	-10.5333
▁स्तुति	-10.5335
सूर	-10.5336
वर्ती	-10.5338
▁जाते	-10.5341
▁परामर्श	-10.5342
िद	-10.5342
लन	-10.5342
्युप	-10.5347
▁उत्पद्यन्ते	-10.5352
▁परशुराम	-10.5352
▁सस्यजन्यः	-10.5352
नाद	-10.5353
▁संयोजन	-10.5354
▁सुधा	-10.5357
▁मांस	-10.5357
शेखर	-10.5359
ङ्ग्ल	-10.5359
सम्मत	-10.536
बू	-10.5361
तथा	-10.5362
▁धारयति	-10.5363
नक्षत्रे	-10.5363
दानं	-10.5368
▁धान्य	-10.537
▁परिहार	-10.5375
▁शैक्षणिक	-10.5379
ोऽयम	-10.5379
▁सर्	-10.5379
▁नेपालदेशस्य	-10.538
न्यस्त	-10.538
पुरस्कारः	-10.5384
▁वाक्	-10.5385
पालन	-10.5387
▁बाल्ये	-10.5389
▁व्यावसायिक	-10.5398
युक्तम्	-10.5401
▁संस्कृते	-10.5402
▁षड	-10.5403
दाय	-10.5403
शक्तेः	-10.5404
रौ	-10.5405
वासरे	-10.5407
ीन	-10.5409
▁धारणा	-10.5409
धो	-10.5409
ers	-10.5409
-‘	-10.5412
▁परमात्म	-10.5413
बाई	-10.5415
▁करणीया	-10.5416
▁विश्राम	-10.5417
▁विमानस्थानकम्	-10.5418
८६	-10.5419
▁निः	-10.5419
सैन्य	-10.5421
per	-10.5425
पादन	-10.5425
▁कैवल्य	-10.5426
▁ग्रामस्य	-10.5427
ाभिः	-10.5427
▁संवत्सर	-10.5432
िकायां	-10.5432
र्ड	-10.5432
▁हस्ते	-10.5433
समास	-10.5433
▁प्रसिध्द	-10.5433
▁पूज्यते	-10.5435
स्वातन्त्र्य	-10.5435
da	-10.5437
यमान	-10.5438
▁युद्धम्	-10.5438
▁प्रदर्शित	-10.5439
▁पूर्वोक्त	-10.5439
▁ताम्र	-10.5441
▁इदमेव	-10.5441
z	-10.5444
त्स	-10.5445
▁स्थितमस्ति	-10.5447
भक्ष	-10.5448
लक्षणम्	-10.5449
ेश्वरस्य	-10.545
▁मेलन	-10.5452
संरचना	-10.5456
संहिताया	-10.5457
▁सादृश्य	-10.5465
▁ग्रा	-10.5468
रसस्य	-10.547
▁शिष्यः	-10.5473
▁पाण्डु	-10.5474
द्वयस्य	-10.5474
▁राज्यसभाया	-10.548
▁विवरणम्	-10.5481
▁जयपुर	-10.5482
▁बालकाः	-10.5483
प्पा	-10.5485
परीक्षण	-10.5488
tor	-10.5489
▁टे	-10.5493
▁गच्छन्	-10.5496
▁अर्जुनस्य	-10.5497
▁उपलभ्यन्ते	-10.5501
▁पत्युः	-10.5501
िणां	-10.5502
कार्यम्	-10.5502
▁सुखदुःख	-10.5504
▁संक्षिप्त	-10.5504
माप	-10.5505
▁प्रचलन्ति	-10.5506
▁प्रशस्ति	-10.5513
▁रुचिः	-10.5513
▁शुक्र	-10.5513
हू	-10.5514
▁दुष्यन्त	-10.5515
लीन	-10.5518
ोऽत्र	-10.5519
लिपिः	-10.5519
▁प्रभावं	-10.5519
समुदाय	-10.5521
ह्न	-10.5522
▁प्रदत्तः	-10.5526
▁इत्युक्त	-10.5528
लब्ध	-10.5529
विंश	-10.5529
पुरा	-10.5534
▁तात्पर्य	-10.5541
▁बै	-10.5542
ङ्गा	-10.5546
श्रम	-10.5549
▁स्थिरं	-10.5549
प्रतिक्रिया	-10.555
▁भद्र	-10.555
▁शूद्र	-10.5553
▁कृष्णस्य	-10.5554
संस्करण	-10.5555
▁३६	-10.5557
रेख	-10.556
ग्रहणं	-10.5562
▁एकेन	-10.5563
pa	-10.5565
मुनि	-10.5568
वृ	-10.5568
महोत्सव	-10.5569
▁अनुभूत	-10.557
▁लक्षणानि	-10.5574
▁धृतराष्ट्र	-10.5577
विक्रम	-10.5577
▁करोमि	-10.5577
सूचना	-10.5582
▁स्थापितवान्	-10.5583
▁खेल	-10.5583
▁ददति	-10.5583
▁देवालयस्य	-10.5588
▁प्रकाशितः	-10.5589
▁सामवेद	-10.5591
मस्	-10.5592
▁तडाग	-10.5592
दध	-10.5593
▁दुग्ध	-10.5593
▁विजयनगर	-10.5593
शक्त्या	-10.5594
ाभ्यन्तरे	-10.5595
ak	-10.5597
जलपातः	-10.5603
▁लोकसभा	-10.5604
लता	-10.5605
▁क्या	-10.5605
ाभिनय	-10.5606
मात्रम्	-10.5606
▁परिपूर्ण	-10.5607
्योः	-10.5611
समन्वित	-10.5612
न्तं	-10.5613
गज	-10.5614
▁कथित	-10.5614
▁निषेध	-10.5619
▁नियुक्तः	-10.562
नीयम्	-10.5621
कौमुदी	-10.5625
▁विनय	-10.5626
▁त्वया	-10.5628
▁कोप	-10.563
ह्य	-10.5633
▁एषु	-10.5635
पेक्षया	-10.564
संख्य	-10.5641
महाभाग	-10.5644
▁प्रशासन	-10.5644
▁न्य	-10.5645
ृत	-10.5647
ेऽध्याये	-10.5652
▁उपमण्डल	-10.5652
सृज	-10.5652
▁उद्घाटित	-10.5653
▁उग्र	-10.5654
नानि	-10.5657
चीन	-10.5658
▁संस्थाप्य	-10.566
▁रामकृष्ण	-10.5661
शैल	-10.5662
विकल्प	-10.5664
वतः	-10.5668
स्वरुप	-10.5669
▁सञ्जातः	-10.5671
्‍य	-10.5672
७४	-10.5672
▁निवृत्ति	-10.5675
▁आरोप	-10.5675
ितो	-10.5675
▁पृष्ठभाग	-10.5675
र्प	-10.5677
▁यस्याः	-10.5678
ाचार्येण	-10.5678
▁सदस्याः	-10.568
▁जयदेव	-10.5682
▁तिष्ठ	-10.5682
▁परमं	-10.5691
िस	-10.5691
▁2	-10.5692
रूपस्य	-10.5695
राष्ट्रीय	-10.5697
तीर्थम्	-10.5698
▁स्थिरतां	-10.5702
▁आवृत	-10.5703
▁o	-10.5704
▁धारा	-10.5705
हान	-10.5706
▁मध्यप्रदेश	-10.5709
ानुसन्धान	-10.5714
निर्माणं	-10.5725
▁सामूहिक	-10.5728
युक्तानि	-10.5729
▁नीत्वा	-10.573
▁चयनं	-10.573
दुर्	-10.5731
▁सुस्पष्ट	-10.5731
▁ईश्वरः	-10.5736
गृह्यसूत्र	-10.5737
वल्लभ	-10.5738
▁प्रतिनिधि	-10.5738
▁गुजरातराज्ये	-10.574
मनस	-10.5741
▁आरोग्य	-10.5741
▁तत्पर	-10.5744
नायकः	-10.5744
▁अक्षराणि	-10.5746
▁तुला	-10.5748
os	-10.5751
चिन्ता	-10.5756
ूष	-10.5761
ə	-10.5761
▁लचीलापनं	-10.5762
▁वक्ष	-10.5762
▁आप	-10.5767
▁ऊर्ध्वं	-10.5768
निर्माणे	-10.5773
▁निर्मिता	-10.5774
कक्ष	-10.5775
लिखित	-10.5775
▁ग्रीष्म	-10.5778
▁ब्रह्मगुप्त	-10.5782
ll	-10.5782
▁तत्त्वं	-10.5785
परम	-10.579
▁अन्यतमं	-10.5791
▁उपमा	-10.5791
▁आरब्धः	-10.5795
गुहा	-10.5795
▁सततं	-10.5796
",	-10.5798
▁त्यज	-10.5799
▁योगे	-10.5801
द्द	-10.5803
ea	-10.5804
िव	-10.5804
प्राय	-10.5807
▁अवगमन	-10.5811
माह	-10.5813
▁आम्ल	-10.5813
रायः	-10.5814
मठ	-10.5815
स्थानक	-10.5817
▁शम	-10.5818
▁प्राप्तिः	-10.5818
नाथः	-10.5818
नुमीयते	-10.5821
▁फलम्	-10.5822
▁विवृत	-10.5826
विधा	-10.5827
▁याग	-10.5827
ow	-10.5829
ताया	-10.5831
फी	-10.5843
▁वर्णनम्	-10.5847
▁द्रा	-10.5849
स्थं	-10.5849
▁चाणक्य	-10.5849
▁वृद्धिः	-10.5853
▁तै	-10.5858
▁अग्निः	-10.5864
▁अपरञ्च	-10.5865
▁दिनेषु	-10.5865
विमर्श	-10.5866
▁ऋ	-10.5868
ाङ्के	-10.5873
han	-10.5874
▁काक	-10.5876
वृत्तेः	-10.5877
ीकरणम्	-10.5877
▁सन्देश	-10.5877
▁मू	-10.5878
▁किञ्चिद	-10.588
▁सूत्रेण	-10.5881
▁पाण्डित्य	-10.5882
रम्भ	-10.5882
▁उद्दिश्य	-10.5883
८२	-10.5883
▁अवश्यं	-10.5884
▁पूरित	-10.5891
ाब्द	-10.5891
▁चतुर्विध	-10.5892
पदेन	-10.5893
म्मा	-10.5897
▁किल	-10.5899
▁पूर्वस्मिन्	-10.59
▁दृष्टा	-10.5902
िंग्	-10.5905
▁कर्तृत्व	-10.5908
ity	-10.5909
सूरि	-10.591
▁किरण	-10.5911
ाधीन	-10.5912
▁लाभः	-10.5916
▁सर्वज्ञ	-10.5916
▁गता	-10.5917
ment	-10.5918
मानस	-10.5919
▁शाला	-10.592
सुन्दर	-10.5921
पुरुषः	-10.5925
भग	-10.5928
▁पितामह	-10.5928
▁महेन्द्र	-10.5932
तद	-10.5933
▁विषयं	-10.594
▁गौ	-10.5941
सेनायाः	-10.5941
ांशः	-10.5947
कर्णाटक	-10.5947
▁त्वम्	-10.5949
स्को	-10.5949
▁आल	-10.595
राजधानी	-10.5952
▁परिश्रम	-10.5953
ञ्जन	-10.5953
राध	-10.5954
▁कथम्	-10.5955
▁पुरस्कारः	-10.5956
▁अखण्ड	-10.596
▁नैसर्गिक	-10.5961
▁भारतीयजनतापक्ष	-10.5961
ातिरिक्त	-10.5961
▁महात्मनः	-10.5962
पद्म	-10.5964
▁प्रतिपादयति	-10.5964
▁मीमांसा	-10.5965
सन्तुलन	-10.5966
▁कृष्णः	-10.5966
▁मनोहर	-10.5966
॥'	-10.5968
▁दिनाङ्क	-10.5971
▁मिलति	-10.5972
▁ईश्वरस्य	-10.5973
▁समतल	-10.5975
▁श्रेष्ठः	-10.5976
▁आत्मज्ञान	-10.5979
▁प्रातिशाख्य	-10.598
स्प	-10.5985
७२	-10.5989
४२	-10.5991
धिकार	-10.5991
ન	-10.5993
▁सुदर्शन	-10.5995
कू	-10.6003
▁Sa	-10.6003
घा	-10.6009
क्रान्ति	-10.6014
पत्राणि	-10.6019
▁त्वक्	-10.602
▁पीडित	-10.602
उत्तरप्रदेशराज्य	-10.6021
▁तैत्तिरीय	-10.6021
▁भिन्नाः	-10.6021
सिध्द	-10.6029
वर्ध	-10.6035
चतुर्थ	-10.6035
▁धनिक	-10.6036
हर्ष	-10.6036
ā	-10.6039
▁व्रण	-10.604
त्यपि	-10.604
▁वर्णितः	-10.6043
प्रवृत्त	-10.6044
▁स्थलम्	-10.6044
▁कुर्वती	-10.6048
▁अवरोध	-10.6049
▁गृहस्थ	-10.6049
▁दृष्टवान्	-10.6055
ड्ड	-10.6056
▁जग	-10.6057
तारा	-10.6058
पुत्रः	-10.6061
लभ	-10.6062
ेश्वरी	-10.6065
▁गुड	-10.6067
वह	-10.6068
धान्य	-10.6068
▁मुस्लिम	-10.6069
सङ्ग्रहः	-10.6069
▁उपस्थित	-10.6076
▁उद्भव	-10.6078
▁नामान्तर	-10.6079
शिया	-10.608
▁तस्माद	-10.6085
ोपयोग	-10.6086
ाधारेण	-10.6088
▁सङ्ग	-10.6089
मागत	-10.6091
▁असि	-10.6092
तिशय	-10.6092
▁सहोदर	-10.6092
▁राष्ट्रीय	-10.6093
लिय	-10.6095
▁उक्तः	-10.6096
▁एड	-10.6099
गणः	-10.6101
▁सोमेश्वर	-10.6103
▁आगताः	-10.6115
विश्लेषण	-10.6115
▁मरणं	-10.6115
મ	-10.6119
▁छन्दांसि	-10.6119
पाक	-10.6119
▁New	-10.6119
▁कनिष्ठ	-10.6121
▁१९६०	-10.6121
▁स्त्रियः	-10.6121
▁अयोध्याकुल	-10.6121
▁लोकसभाया	-10.6122
ारोप	-10.6123
योगेन	-10.6125
विषयः	-10.6127
▁ज्ञातं	-10.6129
▁निष्कर्ष	-10.6129
मन्दिरे	-10.6131
▁पतति	-10.6132
पदे	-10.6134
▁तृण	-10.6137
▁नियन्त्रण	-10.614
▁साधनं	-10.614
चालक	-10.6141
ुरु	-10.6141
▁अट	-10.6142
▁पल्लव	-10.6142
▁खाद्य	-10.6143
▁विद्यमानस्य	-10.6146
▁पटेल	-10.6149
निर्माणस्य	-10.6152
संवाद	-10.6155
▁यास्क	-10.6158
▁मानवः	-10.6159
कुट	-10.6163
▁चण्ड	-10.6168
्येन	-10.617
▁अन्ध	-10.617
▁परमार्थ	-10.6171
▁कच्छ	-10.6172
दुर्गः	-10.6172
▁वेदना	-10.6172
▁चयन	-10.6173
ोत्तम	-10.6175
▁प्रश्नः	-10.6175
▁छात्रान्	-10.6176
▁स्थापितम्	-10.6181
केन्द्राणि	-10.6182
▁कृ	-10.6183
ोक्तम्	-10.6186
▁जनपद	-10.6186
श्वर	-10.619
सम्पादन	-10.619
▁सन्तः	-10.6191
कारो	-10.6197
▁आगतम्	-10.6197
र्क	-10.6198
शास्त्रीय	-10.6198
▁वेग	-10.6198
સ	-10.6199
▁सात्त्विक	-10.6199
ोद्यान	-10.62
▁स्वायत्त	-10.6201
कार्ये	-10.6201
▁दीर्घकालीन	-10.6203
▁प्रदर्शयति	-10.6203
ud	-10.6204
समितेः	-10.6205
▁क्रान्ति	-10.6206
▁संरेखणं	-10.6207
शस्त्र	-10.621
▁अन्यच्च	-10.6211
▁मराठा	-10.6211
मतम्	-10.6214
करणम्	-10.6216
▁विमर्श	-10.6216
▁शव	-10.6216
ानुगत	-10.6218
क्रमे	-10.6219
▁त्यागः	-10.6222
▁केन्द्रित	-10.6223
निक	-10.6225
▁गुणः	-10.6225
▁आचरित	-10.6225
▁अस्म	-10.6226
▁ग्रामीण	-10.6226
▁वर्णयति	-10.6227
▁वाराणसी	-10.6228
▁शब्दाः	-10.6228
▁राज्यस्थ	-10.623
ादेवी	-10.6231
मूर्त	-10.6236
ig	-10.624
▁कस्य	-10.624
ni	-10.6241
▁मन्त्राणां	-10.6242
३९	-10.6242
ूप	-10.6243
▁अपरे	-10.6244
....	-10.6244
▁सूर्यः	-10.6245
युक्तस्य	-10.625
कम	-10.625
12	-10.6252
मधि	-10.6254
ाध	-10.6254
▁उत्पाद	-10.6255
ष्टु	-10.6256
तुर्	-10.6258
▁ऊरु	-10.626
▁निगम	-10.6261
ल्लि	-10.6261
▁गिर	-10.6263
मतिः	-10.6265
ात्मनः	-10.6265
विधिना	-10.6266
▁सम्मुख	-10.6267
ry	-10.6272
▁अलङ्कारशास्त्र	-10.6275
▁एकस्या	-10.6277
▁विदेशीय	-10.6277
▁नारिकेल	-10.6279
वृत्तौ	-10.628
कुन्द	-10.628
▁प्रथित	-10.6282
▁वर्षेषु	-10.6283
▁विचिन्त्य	-10.6283
लिप्या	-10.6284
▁व्यक्तयः	-10.6284
ोन	-10.6288
▁सम्प्र	-10.6289
▁३१	-10.6291
रेण	-10.6292
रन्	-10.6294
महाशय	-10.6295
यतः	-10.6297
पद्धत्या	-10.6298
रचन	-10.6298
वस्तूनां	-10.6299
▁आदर	-10.6301
युगे	-10.6308
४१	-10.6308
▁तर	-10.6308
ऽनु	-10.631
▁त्रयो	-10.6311
▁समाहित	-10.6312
रै	-10.6316
▁युधिष्ठिर	-10.6319
▁फ्र	-10.6321
ावह	-10.6321
सोम	-10.6322
▁ब्राह्मणः	-10.6324
ान्तरं	-10.6332
tr	-10.6333
▁कविना	-10.6333
▁तदानीन्तन	-10.6335
▁वनवास	-10.6335
▁दिव	-10.6336
गीतानि	-10.6339
कृतयः	-10.634
▁3	-10.6341
to	-10.6342
▁कालिदासस्य	-10.6342
दिनम्	-10.6345
द्रव	-10.6347
▁आसनं	-10.6353
मनोवैज्ञानिक	-10.6354
▁विहार	-10.6355
ाभावात्	-10.6358
▁बालिका	-10.636
▁अधिकविवरणार्थ	-10.6361
ालोचनज्ञान	-10.6363
▁एतस्मात्	-10.6364
िमा	-10.6367
गणना	-10.6367
ोद्भव	-10.6368
महाविद्यालये	-10.6368
ोपाध्याय	-10.6369
▁भविष्यन्ति	-10.637
सृ	-10.6374
▁अस्यैव	-10.6377
▁आत्मनि	-10.6378
▁मुगल	-10.6379
iv	-10.6381
text	-10.6382
▁शारदा	-10.6387
परिचय	-10.6389
▁वाग्	-10.6389
▁पाकिस्थान	-10.639
▁परञ्च	-10.6391
ञ्जी	-10.6392
यर	-10.6392
▁मूर्तिः	-10.6393
लाप	-10.6394
यस्य	-10.6399
युगस्य	-10.6399
▁महावीरः	-10.6399
शास्त्रीयसङ्गीत	-10.6401
विक	-10.6402
▁यति	-10.6406
कोल	-10.6407
लक	-10.6412
सर्	-10.6412
▁विशुद्ध	-10.6413
ाभिमुख	-10.6413
४४	-10.6415
गृहं	-10.6419
▁अवि	-10.6419
▁एतावता	-10.642
▁न्यूनता	-10.642
ग्राह	-10.6421
▁नियमित	-10.6421
गिर	-10.6423
पितृ	-10.6426
▁स्थानेषु	-10.6427
परिसर	-10.6428
तीत्य	-10.6429
▁भूमिकां	-10.6431
▁समाविष्ट	-10.6432
स्कन्ध	-10.6433
प्रदेशं	-10.6434
दार्शनिक	-10.6436
सरस्वती	-10.6436
प्रतिमा	-10.6436
▁दुर	-10.6437
सङ्घटन	-10.6439
▁उद्यमाः	-10.644
▁मांसपेशिनां	-10.6444
▁दुर्लभ	-10.6444
▁धृत्वा	-10.6445
▁आपत्काल	-10.6446
▁प्रकारः	-10.6446
▁प्रचालित	-10.6447
बाण	-10.6448
▁विचाराः	-10.6449
ेट्	-10.6451
कार्यस्य	-10.6453
ेयुः	-10.6454
▁सर्वप्रथम	-10.6456
▁सर्वविध	-10.6457
▁पुनश्च	-10.6457
्यमाण	-10.6458
बैङ्क	-10.6459
▁अधिकतम	-10.6461
घन	-10.6462
निवृत्ति	-10.6464
ोन्नत	-10.6467
▁बौधायन	-10.6468
▁प्राचीनकाले	-10.6468
।"	-10.6469
दपि	-10.6471
▁घण्टा	-10.6472
▁जैनधर्मस्य	-10.6473
▁भास्कर	-10.6474
कत्व	-10.6474
तोऽपि	-10.6475
▁श्लोकेन	-10.6478
▁यं	-10.6485
▁प्रतिपाद्य	-10.6485
▁मम्मट	-10.6485
▁अतिरिक्तं	-10.6489
▁पुरुषोत्तम	-10.649
▁उद्देश्यं	-10.6491
िते	-10.6493
▁प्रकृतिः	-10.6495
▁प्रकटित	-10.6495
▁८०	-10.6502
▁कर्नाटक	-10.6502
▁स्पर्धा	-10.6502
▁बालकानां	-10.6506
ib	-10.6506
▁रघु	-10.6509
▁नरक	-10.6509
▁पर्वतस्य	-10.6511
योजनायाः	-10.6512
ायते	-10.6516
खान	-10.6518
रत्नाकर	-10.652
भ्रम	-10.6521
*	-10.6522
लिपि	-10.6522
▁भो	-10.6522
▁वर्णिता	-10.6523
▁वृक्षः	-10.6523
▁भवन्त	-10.6525
▁दैनन्दिन	-10.6525
▁वेदः	-10.6525
▁सङ्गृहीत	-10.6526
▁निर्दिश्यते	-10.6527
पूर्णा	-10.6529
▁सद्यः	-10.6535
मन्त्रि	-10.6535
▁चलच्चित्रस्य	-10.6538
▁विजयः	-10.6538
▁अपा	-10.6539
▁शे	-10.6543
दीय	-10.6546
६४	-10.6547
▁एकवारं	-10.6549
▁जलाशय	-10.6549
▁कर्त	-10.6552
▁सदृश	-10.6552
र्षि	-10.6553
▁समुप	-10.6555
▁काव्यं	-10.6556
गोत्र	-10.6556
िणा	-10.6557
▁मध्वाचार्य	-10.6558
▁पत्रिका	-10.656
▁चन्द्रशेखर	-10.6563
06	-10.6564
▁कृश	-10.6566
▁सतत	-10.6566
▁अथर्ववेद	-10.6566
▁शिष्ट	-10.6567
फलम्	-10.6568
ादर्श	-10.657
यन्ती	-10.6571
▁नान्य	-10.6571
तन्त्रं	-10.6573
विदः	-10.6573
▁शौच	-10.6575
▁जातक	-10.6578
▁उद्धरण	-10.6579
▁उत्तमम्	-10.6584
त्यर्थ	-10.6584
▁पर्	-10.6588
▁वर्षेभ्यः	-10.659
ान्येव	-10.6595
▁दत्ता	-10.6596
▁करुणा	-10.6598
▁इत्याख्या	-10.6602
ातीत	-10.6604
ऽभि	-10.6605
▁मण्ड	-10.6605
▁परिस्थिति	-10.6606
ारण्य	-10.6607
▁प्राग्	-10.6608
▁वर्धित	-10.6608
▁दिगम्बर	-10.6609
▁शैत्य	-10.6609
▁तदुक्तं	-10.6609
▁सकारात्मक	-10.6609
▁परिहरन्तु	-10.6609
▁नागौर	-10.661
▁सिक्ख	-10.661
▁भारतीयाः	-10.6612
0	-10.6615
स्नान	-10.6616
वैविध्य	-10.6619
▁प्रकाशिता	-10.6623
▁वाक्यं	-10.6624
▁चलति	-10.6624
सारः	-10.6626
च्छा	-10.6626
आदि	-10.6627
योर्मध्ये	-10.6628
▁लिखितं	-10.6628
प्रकारस्य	-10.6629
८१	-10.6629
▁याज्ञिक	-10.663
सङ्ग्राम	-10.6631
▁तदनन्तर	-10.6632
▁भीमसेन	-10.6634
▁जनन	-10.6635
च्छि	-10.6635
▁ताल	-10.6639
▁वर्गीकरणं	-10.6641
द्योत	-10.6643
▁आधाराः	-10.6644
ानुष्ठान	-10.6645
▁समावेशः	-10.6647
शन्	-10.6648
ध्यक्ष	-10.6649
▁e	-10.6649
▁कलह	-10.665
▁शुद्धि	-10.6652
भावे	-10.6652
ोपेत	-10.6655
▁स्वीकृतम्	-10.6655
वृद्धिः	-10.6656
▁फ़	-10.6658
तानि	-10.6661
▁विन्यास	-10.6661
▁पौर	-10.6662
▁चित्रं	-10.6665
▁संगीत	-10.6667
सिद्धिः	-10.6669
तदपि	-10.6669
▁विभागाः	-10.6672
▁नरेन्द्र	-10.6673
ष्म	-10.6677
▁वातावरण	-10.6677
स्तव	-10.6681
▁अनुसरणं	-10.6683
वृत्य	-10.6684
रक	-10.6685
षष्टि	-10.6688
▁याव	-10.6688
रूपाणि	-10.669
▁कम्प	-10.669
ru	-10.669
न्थ	-10.6691
▁सञ्जाता	-10.6692
▁इन्दौर	-10.6693
▁कस्मिंश्चित्	-10.6693
▁आह्रियत	-10.6693
▁स्पेन्	-10.6694
गत्या	-10.6694
रोज	-10.6694
▁b	-10.6697
मप	-10.6701
▁अमेरिक	-10.6701
▁मार्	-10.6702
▁जून	-10.6702
▁कोरं	-10.6702
▁उपकरण	-10.6705
▁वर्णनमस्ति	-10.6705
जनन	-10.6708
▁सञ्चार	-10.6708
विज्ञानम्	-10.671
▁इत्येतानि	-10.6711
ग्रन्थि	-10.6711
ab	-10.6713
▁फलतः	-10.6713
निधि	-10.6716
▁पत्न्याः	-10.6716
▁अव्यक्त	-10.6718
ैष	-10.672
▁नामकरण	-10.6722
વ	-10.6723
▁पतित	-10.6724
रेक	-10.6728
▁पश्च	-10.673
जः	-10.6731
खल	-10.6732
ङ्गी	-10.6735
शतके	-10.6737
वस्था	-10.6737
me	-10.6739
▁विग्रहराज	-10.674
▁इदम	-10.6741
स्थानीय	-10.6741
जनित	-10.6742
▁आचर	-10.6744
ञ	-10.6747
तन्तु	-10.675
ख्यात	-10.675
ाऽऽसीत्	-10.6753
▁लेखनानि	-10.6757
मिल	-10.6757
▁6.	-10.6762
▁चर्म	-10.6763
वादिनः	-10.6764
भारतम्	-10.6765
▁आत्मारामः	-10.6769
शरीरस्य	-10.677
▁मर	-10.677
▁उत्तरं	-10.6771
▁वीणा	-10.6773
▁शिल्पकला	-10.6773
▁महाद्वीप	-10.6775
गू	-10.6775
▁शौनक	-10.6778
▁आस्ट्रेलिया	-10.6778
▁नेपाली	-10.6778
▁क्रूर	-10.6778
भट्टस्य	-10.6779
▁१९८०	-10.6779
हिन्दु	-10.678
▁मातुल	-10.678
▁रावणः	-10.6782
▁कट	-10.6783
▁निरीक्षण	-10.6783
पुट	-10.6784
▁विद्यमाने	-10.6786
▁खिन्न	-10.6787
भृत	-10.6787
▁अवसर	-10.679
ip	-10.6791
▁मरु	-10.6792
तन्त्रम्	-10.6792
ाप्त	-10.6793
▁सार्थक	-10.6797
भूतं	-10.6798
▁बङ्ग	-10.68
▁इन्द्रियाणां	-10.68
▁चित्तं	-10.6803
ानुवाद	-10.6805
▁%	-10.6807
▁मुख्यं	-10.6811
च्छन्द	-10.6811
ज्योति	-10.6811
घटक	-10.6814
ेणैव	-10.6815
महानगरस्य	-10.6816
▁अङ्गुल	-10.6816
्री	-10.6817
ारम्भे	-10.6822
▁अर्थाद्	-10.6823
प्रतिभा	-10.6824
▁पाणिनिना	-10.6826
स्वरूपम्	-10.6827
ca	-10.6828
दलस्य	-10.6829
माश्रित्य	-10.6829
तुल	-10.683
▁भारः	-10.6834
सभायाः	-10.6835
▁सम्बन्धं	-10.6835
▁न्यायशास्त्र	-10.6837
▁Gita	-10.6838
प्रकाशन	-10.6843
▁प्रवर्त	-10.6843
▁re	-10.6845
प्रकर्ष	-10.6846
▁बिन्दु	-10.6848
▁अन्येभ्यः	-10.685
▁सभाया	-10.6851
up	-10.6851
दिशि	-10.6852
वादन	-10.6855
oc	-10.6856
प्ट	-10.6856
लित	-10.6856
श्रेष्ठ	-10.6857
रता	-10.6857
धु	-10.686
▁अभिलेख	-10.6861
▁विद्युत्	-10.6861
परम्परायाः	-10.6862
▁Bhagavad	-10.6863
▁भैरव	-10.6865
रामायण	-10.6865
▁मुहूर्त	-10.6865
▁रेल	-10.6865
▁आयुः	-10.6866
ळा	-10.6867
▁विधीयते	-10.6867
ोद्योग	-10.6868
तत्र	-10.6868
▁तावदेव	-10.6868
▁प्रणीता	-10.6868
ार्जुन	-10.6871
गीता	-10.6872
सर्वस्व	-10.6873
तिरिक्त	-10.6877
प्रयोगशाला	-10.6878
पय	-10.6878
गता	-10.688
▁आदित्य	-10.6883
▁सर्ग	-10.6883
गुर	-10.6886
सम्बन्धः	-10.6887
▁विरक्त	-10.6891
कन्द	-10.6894
प्रकारेण	-10.6897
▁खनिज	-10.6898
▁भवती	-10.6901
▁प्रकृतेः	-10.6906
▁मूढ	-10.6906
▁निवारणं	-10.6907
च्युत	-10.6909
गोपाल	-10.6911
कृषि	-10.6911
विषयेषु	-10.6918
▁विभक्तः	-10.692
मेर	-10.692
्यौ	-10.692
वर्गे	-10.6923
▁विद्यमाना	-10.6925
▁पर्यटन	-10.6926
▁विदुषां	-10.6927
६२	-10.6932
भाषाः	-10.6933
लेखा	-10.6933
▁आयोजित	-10.6934
क्षु	-10.6935
रिक	-10.6935
▁आसक्तिः	-10.6937
▁द्वेष	-10.6937
गार	-10.6941
▁प्रक्षेपण	-10.6941
ीषु	-10.6941
कीर्ण	-10.6944
▁महिमा	-10.6946
दूत	-10.6948
▁दिसम्बर	-10.6949
▁नियन्त्रयति	-10.6949
▁मुहम्मद	-10.6949
▁बैङ्क्	-10.695
बौद्ध	-10.6951
▁चन्द्रस्य	-10.6951
▁विचित्र	-10.6951
गृहीत	-10.6952
▁सायं	-10.6953
▁परमात्मनः	-10.6954
▁वर्णितम्	-10.6955
▁सहैव	-10.6958
अन	-10.696
कृतः	-10.696
▁हरित	-10.6961
ोद्ध	-10.6962
▁द्रोण	-10.6966
sp	-10.6968
op	-10.697
▁स्नायुः	-10.697
कुर्वन्	-10.6972
▁हंसः	-10.6973
▁सम्पादन	-10.6973
▁साम्य	-10.6974
द्यु	-10.6974
न्दा	-10.6974
▁त्र	-10.6974
▁साङ्ख्य	-10.6975
▁भजन	-10.6976
▁द्व	-10.6979
▁अन्तर्गत	-10.6982
▁द्वन्द्व	-10.6983
न्या	-10.6985
▁प्राचीना	-10.6986
भवनं	-10.6987
▁हितकर	-10.6988
▁अवधान	-10.6989
▁संज्ञानात्मक	-10.6989
ary	-10.699
▁लाभं	-10.699
▁ग्राहक	-10.6991
बलं	-10.6991
▁चितः	-10.6998
▁जातं	-10.7004
▁प्राप्तं	-10.7004
▁व्याख्यानं	-10.7004
गञ्ज	-10.7005
किमपि	-10.7008
निष्	-10.7008
खण्डः	-10.7009
सहितं	-10.7011
नील	-10.7011
▁योगाभ्यास	-10.7012
ोऽस्य	-10.7013
▁कार्यालय	-10.7016
he	-10.7017
▁धारण	-10.7018
७१	-10.7022
▁मत्	-10.7025
▁सर्वप्रथमं	-10.7031
द्वैत	-10.7035
ಿ	-10.7036
▁धारवाड	-10.7037
▁उद्धृत	-10.7037
ill	-10.7037
▁राज्याभिषेक	-10.7038
▁पञ्चतन्त्रस्य	-10.7038
▁नद्या	-10.7041
नाड	-10.7043
▁नियन्त्रणं	-10.7045
▁भित्ति	-10.7045
वासिनः	-10.7046
▁एतादृशी	-10.7046
▁महिष	-10.7046
▁समवाय	-10.7048
ર	-10.7049
▁कर्तव्यं	-10.7049
▁राष्ट्रपति	-10.705
▁प्राय	-10.7051
▁कपाल	-10.7052
रक्षा	-10.7053
गुजराती	-10.7053
गौड	-10.7059
बुल	-10.7061
▁पुरी	-10.7061
▁De	-10.7071
▁गरुड	-10.7071
ौषध	-10.7072
प्रमुख	-10.7073
ाँ	-10.7074
▁हत्या	-10.7074
▁स्वीकार	-10.7076
▁अन्त्य	-10.7078
तिष्ठत	-10.7081
गाथा	-10.7082
▁मौन	-10.7085
▁इच्छ	-10.7086
▁Ra	-10.7087
▁सप्तमे	-10.7091
ान्दोलन	-10.7092
प्रभृतयः	-10.7092
▁स्पष्टमेव	-10.7094
दैव	-10.7094
▁सांख्य	-10.7095
स्कर	-10.7095
▁पालि	-10.7096
▁प्रसारित	-10.7096
▁निबद्ध	-10.71
▁कशेरुक	-10.7101
कर्तरि	-10.7103
▁कटु	-10.7105
▁चैत्र	-10.7106
िभ्यः	-10.7106
▁शर्मा	-10.7106
▁०	-10.7113
▁फा	-10.7113
▁स्वीकृतः	-10.7114
ज्ञाः	-10.7115
▁पूर्णं	-10.7116
▁सोऽपि	-10.7118
पादः	-10.7122
▁दक्षिणभागे	-10.7123
निवारण	-10.7123
▁पूजां	-10.7123
▁सहयोग	-10.7124
ॅ	-10.7124
विवेकः	-10.7124
कर्तव्य	-10.7125
▁प्रतिपादन	-10.7125
सङ्घर्ष	-10.7128
▁मराठी	-10.7129
भेदः	-10.7129
▁अप्र	-10.7129
कोशः	-10.7129
प्रमाणेन	-10.713
अमेरिका	-10.713
▁प्रेषितवान्	-10.713
▁प्रविष्टवान्	-10.7132
▁२०२०	-10.7134
▁पाचन	-10.7134
▁वस्तूनां	-10.7135
दृष्टि	-10.7137
रचित	-10.7138
▁लिपि	-10.7139
▁समग्रं	-10.714
पत्त	-10.714
▁राजेन्द्र	-10.7141
W	-10.7141
▁तकनीक	-10.7143
▁कृत्य	-10.7143
▁मनःसन्तोषं	-10.7144
▁समयान्तर	-10.7144
▁In	-10.7145
विन्द	-10.7146
▁अंशाः	-10.7148
▁दिवङ्गतः	-10.7149
▁गतिशील	-10.7149
▁सदैव	-10.7149
▁अचेतन	-10.7151
सभायां	-10.7155
▁आन्दोलन	-10.7155
शोधन	-10.7157
कर्मण	-10.7159
▁कृषक	-10.716
कारा	-10.7162
▁स्मरणं	-10.7163
▁ब्राह्मणग्रन्थ	-10.7166
▁राज्यपाल	-10.7167
▁चौहान	-10.7167
कुशल	-10.7169
बिन्	-10.717
▁खा	-10.7171
▁तत्तु	-10.7173
विहीन	-10.7175
▁यौवन	-10.7178
▁विद्याभ्यास	-10.7179
▁लेप	-10.7181
▁दक्षिणभारते	-10.7181
वलय	-10.7181
स्तं	-10.7181
वित्	-10.7181
सद	-10.7182
कत्वेन	-10.7184
मन्त्री	-10.7185
▁अन्यतम	-10.7185
▁अध्य	-10.7186
▁(19	-10.7186
▁उद्घोषित	-10.7187
▁दर्शनम्	-10.7195
▁सुरक्षा	-10.7195
४३	-10.7196
▁निर्णीत	-10.7197
कर्तुः	-10.7199
▁सम्पर्कः	-10.7199
▁वचनानि	-10.7199
५१	-10.7201
ाभिषेक	-10.7211
▁वस्तुतस्तु	-10.7214
▁देहल्या	-10.7214
▁यन्	-10.7215
लिपेः	-10.7216
▁भावनात्मकं	-10.7216
गर्	-10.7218
▁स्थापयति	-10.7219
▁प्रसिद्धि	-10.7219
स्थाप्य	-10.7221
▁मृतः	-10.7221
▁भौतिकी	-10.7221
संयुक्त	-10.7222
भूमिका	-10.7226
▁श्रीमती	-10.7227
▁अर्वाचीन	-10.7228
मधुर	-10.7229
सञ्चय	-10.7229
▁प्रतिपद	-10.7231
▁नर्मदा	-10.7233
रहस्य	-10.7236
छन्द	-10.724
▁पुरुषाणां	-10.7241
▁योगदान	-10.7248
▁हिन्दुधर्म	-10.7248
ावश्यक	-10.725
▁जनप्रिय	-10.7251
▁५००	-10.7253
ांश्च	-10.7253
निश्चय	-10.7253
▁जलपात	-10.7258
प्रासाद	-10.7259
स्टर्	-10.7259
तद्	-10.7266
िको	-10.7269
▁वर्त	-10.7269
▁४५	-10.7273
J	-10.7275
क्रियाणां	-10.7278
▁आद	-10.728
▁स्मरणीय	-10.728
▁सम्बद्धः	-10.728
लिन	-10.7282
ङ्कर	-10.7284
▁ऋत	-10.7285
▁एवेति	-10.7285
▁क्रैस्त	-10.7286
शक्त	-10.7287
▁अभ्यासेन	-10.7288
▁महोदय	-10.729
▁अशुद्ध	-10.7293
▁भिन्ना	-10.7293
▁पदवी	-10.7294
व्यञ्जन	-10.73
া	-10.7302
प्रभृतीना	-10.7302
▁वैभव	-10.7303
▁तिस्र	-10.7303
ध्ययन	-10.7304
▁विराजते	-10.7304
▁विषयान्	-10.7306
▁चित्रित	-10.7307
▁ग्राह्य	-10.7312
द्वादश	-10.7312
▁जलबन्ध	-10.7315
▁आस	-10.7319
▁महत्त्वपूर्णम्	-10.7322
शताब्द	-10.7324
▁देवा	-10.7327
वर्षेभ्यः	-10.733
▁प्रकृत	-10.7331
वेदान्त	-10.7333
har	-10.7333
▁तत्व	-10.7334
▁कलिङ्ग	-10.7334
▁अवलोकन	-10.7335
▁जै	-10.7336
▁अत्य	-10.7337
▁एतदेव	-10.7339
▁इदानीन्तन	-10.7339
▁तमिळ	-10.7342
▁समुदाय	-10.7344
▁परमाणु	-10.7345
▁क्रिकेट्	-10.7352
वदेव	-10.7355
▁चित्रस्य	-10.7356
▁विद्यार्थि	-10.7357
▁प्रभावी	-10.7357
क्षेपण	-10.736
▁वायुयान	-10.736
▁शङ्का	-10.7361
18	-10.7363
▁जलपातः	-10.7364
▁वैज्ञानिकः	-10.7366
▁d	-10.7367
▁प्रचलिता	-10.7367
पूज	-10.7368
▁श्वसनस्य	-10.7369
▁चन्द्रगुप्त	-10.7371
कृतं	-10.7371
पूर्	-10.7372
▁आयोजनं	-10.7372
▁पञ्चविंशति	-10.7374
▁नितम्बस्य	-10.7376
▁इदानीम्	-10.7378
▁विविधानि	-10.738
▁न्यूना	-10.738
▁पान	-10.7387
लैण्ड	-10.7388
विन	-10.7389
▁निर्माति	-10.7392
कोशिका	-10.7393
▁ऊँ	-10.7393
▁१९५०	-10.7397
प्रशासन	-10.7397
कन्नड	-10.7398
▁प्रभु	-10.7398
▁आवरण	-10.7399
▁मुखे	-10.74
व्यवसाय	-10.7402
▁ईसवीये	-10.7406
▁शैल	-10.7408
चलन	-10.7408
▁प्रयोजनं	-10.7411
रोम	-10.7412
▁हृदये	-10.7416
▁गुर्जर	-10.7416
पीड	-10.7416
▁स्निग्ध	-10.7416
ांसि	-10.7417
▁ग्ल	-10.7417
प्लव	-10.7417
नुभव	-10.7418
▁फ्रायड	-10.7418
स्माद्	-10.7419
▁प्रक्षेप	-10.742
मद्	-10.7422
विवाद	-10.7424
▁18	-10.7425
ल्या	-10.7426
निराकरण	-10.7428
मोहन	-10.7428
सैनिक	-10.7428
▁शान्तिः	-10.743
▁प्राच्य	-10.743
▁कदम्ब	-10.7434
त्रिक	-10.7435
▁सर्वेषाम्	-10.7437
शर्म	-10.7438
मात्रा	-10.7438
▁२००	-10.7438
ोइड	-10.7438
चन्द्रिका	-10.744
दाता	-10.7441
▁जनानाम्	-10.7444
मात्म	-10.7445
िनि	-10.7447
▁आर्यभट	-10.7449
प्रिया	-10.745
▁प्रमुखा	-10.7453
▁स्वास्थ्यं	-10.7456
▁अग्रभाग	-10.7457
▁नयन	-10.746
ालयः	-10.746
सेव	-10.7462
▁प्रायो	-10.7463
मन्त्रालय	-10.7467
धूमशकट	-10.7467
▁ओड़िशा	-10.747
खण्डन	-10.747
▁सम्मानन	-10.7471
त्री	-10.7479
▁पाषाण	-10.748
▁उच्चारण	-10.7482
▁नियुक्त	-10.7482
▁मथुरा	-10.7483
દ	-10.7483
▁गिजुभाई	-10.7483
▁प्रददाति	-10.7483
▁प्रह्लाद	-10.7483
▁बसयानैः	-10.7483
▁उज्जैन	-10.7483
▁आव्हान	-10.7483
▁धैर्य	-10.7483
▁प्राप्तुम्	-10.7485
मध्ययन	-10.7486
रूपिण	-10.7487
▁दुर्गस्य	-10.7488
▁बाहून्	-10.7489
▁चोर	-10.7489
▁अन्व	-10.7489
कर्षण	-10.7489
▁आहारपदार्थः	-10.749
‘	-10.7492
विषयकं	-10.7493
निरीक्षण	-10.7493
▁इमं	-10.7494
▁एतादृशं	-10.7495
केतु	-10.7496
▁मार्गदर्शन	-10.7496
▁संस्थापित	-10.7498
कषाय	-10.75
खर	-10.75
ng	-10.7501
▁गृह्यते	-10.7502
प्रबन्धन	-10.7502
ग्ग	-10.7504
उद्वेग	-10.7504
पाश	-10.7505
▁मन्ये	-10.7507
▁अनुशासन	-10.751
▁कमला	-10.7511
▁अय्य	-10.7512
▁प्रतिबिम्ब	-10.7515
▁प्रेष	-10.7515
▁वितरण	-10.7518
11	-10.7519
▁मीरा	-10.7525
▁जुलै	-10.7527
षी	-10.7528
▁अन्या	-10.7528
परं	-10.7529
▁अनेनैव	-10.7533
वैद्य	-10.7534
कार्येषु	-10.7536
si	-10.7536
▁नागपुर	-10.7536
▁मलय	-10.7538
od	-10.7539
विमान	-10.7539
▁कथाः	-10.7544
तन्त्रस्य	-10.7544
▁नापि	-10.7545
ai	-10.7549
कमल	-10.7549
ुवा	-10.7549
▁सर्वस्य	-10.755
्यादि	-10.7551
▁अधिकारः	-10.7551
ष्ट्र	-10.7552
नियत	-10.7553
ss	-10.7554
त्वञ्च	-10.7554
ुका	-10.7556
वर्णः	-10.7557
तश्च	-10.7558
▁कृतानि	-10.7558
▁अत्यावश्यक	-10.7561
્	-10.7562
▁राज्यानि	-10.7562
मिदम्	-10.7563
करी	-10.7564
▁सन्तान	-10.7569
ाधिकरण	-10.7571
▁प्रोत्साहन	-10.7573
▁अत्यजत्	-10.7574
▁उद्घाटन	-10.7575
▁लभ्यन्ते	-10.7575
▁भारतगणराज्य	-10.7576
▁इत्येतेषां	-10.7576
▁भग्न	-10.758
▁सहायता	-10.7581
▁दुष्	-10.7582
मतः	-10.7583
▁उपनिषद्	-10.7585
जरा	-10.7585
▁शिवलिङ्ग	-10.7586
ब्रु	-10.7587
ja	-10.7588
▁अनन्य	-10.7592
▁तार	-10.7595
र्जन	-10.7595
ावलि	-10.7597
ृष्ट	-10.7602
फर	-10.7603
िके	-10.7603
▁नीत	-10.7606
▁विभक्तम्	-10.7608
छात्र	-10.7608
रतः	-10.7609
po	-10.7609
प्रकाशः	-10.7609
चन्द	-10.761
▁ताव	-10.7611
▁अजायत	-10.7612
▁मोक्षः	-10.7612
स्पर्धा	-10.7613
▁प्रभा	-10.7614
स्वतन्त्र	-10.7617
▁किलोमीटर्मिते	-10.7618
▁शब्दानां	-10.7619
▁उपा	-10.762
▁शिरस	-10.7623
पदा	-10.7623
▁तत्त्वानि	-10.7623
▁ऑ	-10.7624
▁जान	-10.7624
▁रति	-10.7624
▁आङ्ग्लाः	-10.7626
भाण्ड	-10.7627
रुद्र	-10.7631
▁दीन	-10.7633
कालात्	-10.7635
ट्स्	-10.7636
▁सम्प्राप्त	-10.7639
▁कुश	-10.7639
ture	-10.764
विधयः	-10.764
▁अद	-10.7643
ग्ल	-10.7647
ित्	-10.7649
ोपयोगि	-10.7649
▁बहुभिः	-10.7654
मातृ	-10.7655
▁एतौ	-10.7655
▁छन्दो	-10.7655
▁निरा	-10.7658
▁न्यास	-10.7658
▁निर्णयं	-10.7659
ाधिकारः	-10.7659
कवेः	-10.7661
महानगरं	-10.7662
वंशीयानां	-10.7663
▁अक्ष	-10.7665
▁आकर्षण	-10.7666
शाक	-10.7667
▁तथाहि	-10.7667
▁अपृच्छत्	-10.7667
▁जबलपुर	-10.7667
▁अकथयत्	-10.7667
▁हठयोग	-10.7668
▁१९९९	-10.7668
वर्षीय	-10.7669
▁हेमचन्द्र	-10.767
सागरः	-10.7673
▁इच्छन्ति	-10.7673
कार्	-10.7676
विद्यायाः	-10.7677
इण्ड	-10.7678
▁यतोहि	-10.7679
श्राद्ध	-10.7682
▁पश्यन्ति	-10.7682
संवत्सर	-10.7683
▁अलङ्कृत	-10.7683
▁विभज्य	-10.7685
▁प्रसव	-10.7686
थे	-10.769
मेवास्ति	-10.769
▁परिगणित	-10.769
▁जिला	-10.769
man	-10.769
▁दाक्षिणात्य	-10.7691
स्तुति	-10.7691
▁चरित	-10.7691
▁मनुष्याणां	-10.7692
दुर्गम्	-10.7693
नरसिंह	-10.7693
▁श्रेणी	-10.7693
▁तादृशः	-10.77
▁उन्नतः	-10.7704
ध्वंस	-10.7705
▁बाग	-10.7706
▁प्रकाशनं	-10.7707
नियमाः	-10.7711
एव	-10.7714
▁प्रमाणेन	-10.7715
▁पश्यामः	-10.7716
ाध्य	-10.7718
▁समता	-10.7718
ाभरण	-10.7719
▁साधनानि	-10.7723
माना	-10.7725
बन्धु	-10.7725
pur	-10.773
▁प्रमाणानि	-10.7732
▁तान	-10.7733
▁व्यासः	-10.7734
▁एकमेव	-10.7735
निरोध	-10.7736
▁इस्लाम	-10.7736
ate	-10.7736
डर	-10.7742
▁स्क	-10.7747
वर्णीय	-10.7747
▁दर्शनस्य	-10.7747
▁अधिकारी	-10.7756
मरण	-10.7757
ot	-10.7759
कर्मणां	-10.776
▁ज्योतिषशास्त्र	-10.776
▁गुवाहाटी	-10.776
▁मनोरञ्जन	-10.7761
▁धनञ्जय	-10.7762
▁रू	-10.7762
▁उभौ	-10.7762
▁सहस्रशः	-10.7763
▁भि	-10.7763
▁गतिं	-10.7765
▁विस्तरेण	-10.7768
परिवर्तनं	-10.777
वैध	-10.7771
दानम्	-10.7772
▁अरुणाचलप्रदेश	-10.7777
प्रयोगः	-10.7779
ावृत	-10.7779
▁क्रीडन	-10.778
▁हनन	-10.7783
करं	-10.7783
अव	-10.779
साधु	-10.7793
▁बौद्धिक	-10.7798
संयोजन	-10.7798
्वैव	-10.78
▁समाप्ति	-10.7801
स्थलेषु	-10.7801
चरितं	-10.7803
▁भवत्य	-10.7805
▁स्वशरीर	-10.7805
▁निर्वहण	-10.7808
▁सहसा	-10.7809
ानन्दः	-10.7813
भाषाणां	-10.7814
उपमण्डल	-10.782
गृहे	-10.7821
▁७५	-10.7821
▁अतिरिक्त	-10.7825
जगति	-10.7829
▁ग्रन्थं	-10.7831
▁कर्मसु	-10.7831
▁विभाव	-10.7831
नद्या	-10.7833
▁सनातन	-10.7833
▁नायिका	-10.7834
लिन्	-10.7836
▁बाध	-10.7837
‍	-10.784
युद्धे	-10.7841
क्ट	-10.7841
प्रत्य	-10.7842
▁रघुनाथ	-10.7842
वर्य	-10.7844
ास्ते	-10.7845
▁प्रवेशः	-10.7848
▁विभक्ताः	-10.7852
▁चर्चां	-10.7854
▁कृदन्त	-10.7855
▁१९५६	-10.7856
▁Pose	-10.7857
ोच्यते	-10.786
▁विशेषण	-10.786
▁लिखति	-10.7861
▁भूमार्गेण	-10.7864
क्रे	-10.7864
सिंहस्य	-10.7869
आन्दोलन	-10.787
च्छाया	-10.7871
▁निश्चयेन	-10.7872
ाधिकारी	-10.7874
ant	-10.7875
ाख्यं	-10.7875
▁सुगन्ध	-10.7877
महिला	-10.7877
संवेग	-10.7881
▁विदुर	-10.7881
मतस्य	-10.7887
▁अग्रज	-10.7889
मापक	-10.7889
▁सदन	-10.789
▁श्रोत्र	-10.7892
▁ढ	-10.7894
▁अली	-10.7895
▁युवक	-10.7896
▁शासक	-10.7898
▁संस्कृतस्य	-10.7903
▁सहृदय	-10.7904
▁स्मृतिः	-10.7904
श्चासीत्	-10.7905
चक	-10.7906
मेघ	-10.7906
▁विश्लेषणं	-10.7907
▁इयम्	-10.7908
संज्ञ	-10.7909
क्का	-10.791
▁युध्द	-10.791
नन्दन	-10.7911
▁निर्मल	-10.7911
▁मुक्तिः	-10.7913
भूय	-10.7914
ाली	-10.7915
▁भु	-10.7916
ष्टीका	-10.7919
▁दत्तं	-10.7922
▁10	-10.7923
▁व्यापारः	-10.7926
▁उत्सवाः	-10.7929
▁दुर्गः	-10.7931
मभूत्	-10.7933
▁वेति	-10.7935
ुद्दीन	-10.7938
▁टै	-10.7939
वनं	-10.7939
▁अन्तःकरण	-10.794
▁पार्श्वनाथस्य	-10.794
वाडा	-10.7941
▁दुर्गं	-10.7941
▁अर्	-10.7943
केषु	-10.7945
▁एकीकरण	-10.7947
निरूपण	-10.7947
▁जागरूकता	-10.7948
नामिका	-10.7949
नार्थं	-10.7949
▁धूमशकटमार्गः	-10.795
कर्मसंन्यासयोग	-10.795
कुटुम्ब	-10.7953
▁द्रुत	-10.7953
▁ज्ञाता	-10.7954
▁प्राधान्य	-10.7954
▁प्रवचन	-10.7955
▁दृष्टान्त	-10.7957
मालिन्य	-10.7957
भाष्ये	-10.796
▁कनक	-10.7962
▁प्रत्यागत	-10.7962
सिध्दान्त	-10.7965
▁प्रतिपाद	-10.7965
▁परिमाण	-10.7965
▁प्रवर्तित	-10.7966
▁पादमित	-10.7966
कृतिः	-10.7967
प्रयुक्त	-10.7967
▁तथ	-10.7968
▁विश्वविद्यालये	-10.7968
मयः	-10.797
त्वादि	-10.7971
कर्तृ	-10.7971
लेण्ड्	-10.7974
विकासस्य	-10.7974
▁निवारण	-10.7977
▁न्यूनः	-10.7978
▁तदनन्तरम्	-10.7979
न्नि	-10.7979
▁मूर्ख	-10.7981
ɪ	-10.7982
▁स्वार्थ	-10.7982
यदा	-10.7984
▁कॉ	-10.7985
▁सैनिकाः	-10.7989
▁पतञ्जलि	-10.799
कुरु	-10.7991
▁तन्न	-10.7991
षष्ठ	-10.7991
▁वार्षिक	-10.7992
▁बिहारराज्य	-10.7993
▁ऋषिः	-10.7995
▁दृढं	-10.7995
यस्	-10.7996
▁अयम	-10.7996
▁चतुर्धा	-10.7998
▁अत्रत्या	-10.7999
▁द्र	-10.7999
इत्यस्य	-10.8003
तृप्त	-10.8004
▁निष्ठा	-10.8004
व्यः	-10.8005
no	-10.8006
▁महिलानां	-10.801
▁विश्लेषण	-10.801
तिथि	-10.801
▁पञ्चतन्त्र	-10.8014
▁समाधिः	-10.8014
▁पराजितः	-10.8017
▁काच	-10.8018
▁न्यायालय	-10.802
धारी	-10.8022
तीव	-10.8026
प्रथा	-10.8026
▁तामस	-10.8027
करोत्	-10.8027
▁बाल्यं	-10.8028
▁दास्य	-10.8033
▁राव	-10.8038
▁परे	-10.8039
▁कक्ष	-10.8039
स्मात्	-10.804
▁कीर्तन	-10.8041
▁आपस्तम्ब	-10.8046
▁अन्तर्राष्ट्रीय	-10.8047
▁१९९६	-10.8047
▁विकासे	-10.8048
▁अक्टोबर्	-10.805
▁केनचित्	-10.8051
▁आपूर्ति	-10.8051
▁नाभि	-10.8051
▁मन्यमान	-10.8052
बै	-10.8053
▁वहन्ति	-10.8056
दिनानि	-10.8057
▁विमुक्त	-10.8059
▁शिक्षणम्	-10.806
▁विलीन	-10.806
▁मिलित	-10.8064
▁मुखं	-10.8068
▁रात्रि	-10.8069
ोत्पत्ति	-10.8069
व्यूह	-10.807
सङ्ख्य	-10.8071
▁बालानां	-10.8073
▁शीघ्र	-10.8073
ರ	-10.8074
▁विशेषेण	-10.8075
▁ग्रन्थकार	-10.8078
▁कुसुम	-10.8079
▁पूर्वतन	-10.8079
ग्रामं	-10.8082
खात	-10.8084
ीयानि	-10.8085
प्रक्रियायाः	-10.8085
▁कास	-10.8087
▁क्रीडाङ्गण	-10.8088
ऽन्य	-10.8091
शालि	-10.8093
▁कृतमस्ति	-10.8095
शोक	-10.8096
▁युरोप	-10.8096
कल्पन	-10.8098
▁दृष्टः	-10.8099
▁नीलकण्ठ	-10.8099
सद्	-10.8106
ક	-10.8107
▁कर्मणां	-10.8108
कुमारः	-10.8109
▁भिन्नः	-10.811
चित्राणि	-10.8112
श्रुति	-10.8113
▁२००२	-10.8114
मनुभव	-10.8114
▁नाम्नः	-10.8119
िंग	-10.812
▁यद्य	-10.8126
सेनः	-10.813
▁सञ्जात	-10.8134
▁फ्रे	-10.8137
पुराणम्	-10.8138
चक्रं	-10.8138
अर्थ	-10.8142
▁ब्रिटेन	-10.8143
▁वार्तालाप	-10.8144
▁उत्कीर्ण	-10.8144
▁वासुदेव	-10.8144
▁अलभत	-10.8146
▁अमेरिकादेश	-10.8146
भौ	-10.8147
▁दाह	-10.8148
▁अतएव	-10.8148
▁प्रयतते	-10.8148
▁भरतः	-10.8149
तव	-10.8151
▁आयुर्वेदिक	-10.8151
lu	-10.8151
▁खल	-10.8152
षे	-10.8152
ग्रा	-10.8152
प्ल	-10.8153
▁पिण्ड	-10.8155
▁Ca	-10.8157
तट	-10.8158
▁गौण	-10.8161
▁भुवनेश्वर	-10.8162
▁ज्या	-10.8163
नाम्नी	-10.8166
बिन्दु	-10.8167
भूतः	-10.8167
प्रायश्चित्त	-10.8168
तान	-10.8168
दर्पण	-10.8169
▁पट्टिका	-10.8169
▁दुर्योधन	-10.8169
▁नाभवत्	-10.8171
प्रकरणे	-10.8175
▁स्मृतः	-10.8178
रोध	-10.818
संहार	-10.8181
कोण्ड	-10.8181
▁पालित	-10.8181
▁आवश्यकी	-10.8184
▁अभयारण्य	-10.8184
अभि	-10.8186
▁गायत्री	-10.8188
▁स्वीकृता	-10.8193
सर्वकारेण	-10.8193
▁श्रेयः	-10.8194
घर	-10.8196
प्रदेशाः	-10.8196
end	-10.8199
मकरन्द	-10.82
▁विस्तृतः	-10.8203
▁मृद	-10.8204
▁अयञ्च	-10.8205
▁दीर्घं	-10.8205
▁ओडिशा	-10.8205
▁स्वजीवन	-10.8209
शाल	-10.821
ळी	-10.8214
▁वेदे	-10.8214
स्तद्	-10.8216
ाबाद	-10.8217
▁उद्यान	-10.8219
काङ्ग्रेस	-10.822
▁संरक्षित	-10.8223
▁मौर्य	-10.8223
▁=====	-10.8224
▁विविधता	-10.8225
▁पुल	-10.8225
कन्दुक	-10.8227
▁लभ	-10.8228
▁शाखाः	-10.823
▁तस्यै	-10.8233
▁बहि	-10.8234
▁दण्डिन	-10.8234
▁आग्नेय	-10.8235
नक	-10.8237
▁कौन्तेय	-10.8241
▁दीमापुर	-10.8241
▁श्रमिक	-10.8242
▁आख्यान	-10.8243
▁गहनं	-10.8244
▁इत्यनया	-10.8244
▁अमृतसर	-10.8244
▁प्रेषित	-10.8247
ार्पण	-10.8247
▁भक्त्या	-10.8248
▁तत्त्वज्ञान	-10.8248
▁चित्रे	-10.8248
▁अम्बा	-10.8249
▁विद्धि	-10.8249
ेष्वेव	-10.825
▁युवा	-10.8251
वियोग	-10.8251
▁बृहस्पति	-10.8252
र्ट	-10.8252
▁कथनं	-10.8252
▁चिन्तित	-10.8255
कर्मणा	-10.8256
▁दोषः	-10.8257
▁ब्राह्मणस्य	-10.8258
▁नानाविध	-10.8261
▁बौद्धधर्म	-10.8261
मान्य	-10.8262
▁पूर्णिमा	-10.8262
▁निरूपिताः	-10.8262
▁आरक्षक	-10.8264
वर्येण	-10.8264
▁भरतस्य	-10.8265
ग्रन्थिः	-10.8266
रोगस्य	-10.8266
कशेरुक	-10.8267
ोक्तिः	-10.8267
ाधिक्य	-10.8267
क्षम	-10.8268
घट्ट	-10.8268
▁कस्मिन्	-10.8269
अप	-10.8269
▁आवश्यकः	-10.827
कैः	-10.827
▁प्रतिपादिताः	-10.8271
▁भरद्वाज	-10.8272
▁चेन्न	-10.8274
▁ख्रीष्ट	-10.8275
क्राम	-10.8275
▁पञ्चमे	-10.8278
संस्कृति	-10.8281
▁महत्व	-10.8283
ान्ध	-10.8284
ग्रहः	-10.8287
▁७०	-10.8289
षण	-10.8291
▁देवः	-10.8294
मार्गस्य	-10.8298
▁विवेचनं	-10.8303
केत	-10.8305
▁एप्रिल्	-10.8306
भर	-10.8308
▁कुण्ड	-10.831
ालोचन	-10.8311
▁राजवंश	-10.8314
चिह्नानि	-10.8316
निर	-10.8322
▁द्राक्षा	-10.8323
पत्रिकायाः	-10.8324
▁नक्षत्राणि	-10.8326
▁टाटा	-10.8326
्रा	-10.8327
ूक	-10.8328
▁बृहद्	-10.833
▁स्वकीयं	-10.8331
ाभावः	-10.8332
एस	-10.8334
▁वसु	-10.8337
▁डिसेम्बर्	-10.834
करो	-10.8341
▁युक्ति	-10.8341
ात्मानं	-10.8341
▁नागार्जुन	-10.8341
▁मदनलाल	-10.8342
भावं	-10.8342
▁आसक्त	-10.8345
▁अवसाद	-10.8348
▁अकबर	-10.8348
स्तेन	-10.8349
▁कस्या	-10.835
झा	-10.8351
▁आरभते	-10.8351
इत्य	-10.8351
▁विघ्न	-10.8352
सहाय	-10.8353
▁यावद्	-10.8355
▁विरल	-10.8356
सन्त	-10.8361
सूचक	-10.8362
महत्त्व	-10.8363
दशा	-10.8366
▁विस्मय	-10.8366
age	-10.8367
निर्दिष्ट	-10.8369
▁तत्सर्व	-10.837
▁वादन	-10.837
लङ्घ	-10.8371
निबन्ध	-10.8372
▁सम्भाव्य	-10.8372
ोऽयम्	-10.8372
▁पच	-10.8372
मस्तिष्क	-10.8373
▁रसायन	-10.8374
▁कालस्य	-10.838
दर्शनस्य	-10.8387
दर्शी	-10.8388
ाधिप	-10.8388
पै	-10.8389
▁गुणानां	-10.8394
▁चेद्	-10.8394
प्रभ	-10.8396
ोऽह	-10.8397
चाल	-10.8397
▁धी	-10.84
▁भोजराज	-10.8401
▁नियन्त्रित	-10.8403
भृ	-10.8405
▁वर्णिताः	-10.8408
▁प्रस्थान	-10.841
ba	-10.8411
युतं	-10.8412
ाघात	-10.8418
विपाक	-10.8419
▁निर्व	-10.8419
▁कियत्	-10.842
▁नारी	-10.842
om	-10.8421
ान्वेषण	-10.8421
▁प्रणाली	-10.8423
▁निपुण	-10.8423
वसरे	-10.8423
सकारः	-10.8425
जू	-10.8427
▁तिर	-10.8427
परिचयः	-10.8429
▁पदेन	-10.8431
मुद्र	-10.8432
▁शनि	-10.8439
देव्या	-10.844
િ	-10.844
ಾ	-10.844
▁मितशकाब्द	-10.844
்	-10.844
▁Swami	-10.844
▁पौनःपुन्येन	-10.844
▁उपविश्य	-10.844
▁ऋषयः	-10.844
▁English	-10.844
▁भृगु	-10.844
ञ्जा	-10.8442
मध्यम	-10.8443
▁खो	-10.8443
▁आत्मविश्वास	-10.8444
▁पराक्रम	-10.8446
▁वैशिष्ट्य	-10.8447
▁स्वीकर्तुं	-10.8448
जप	-10.8448
पादित	-10.8451
मावश्यक	-10.8452
्रे	-10.8452
▁वाणिज्यं	-10.8455
मभित	-10.8456
सांस्कृतिक	-10.8458
काराणां	-10.8461
ाध्ययनं	-10.8465
▁अंशः	-10.8466
▁उदयन	-10.8466
▁जिन	-10.8466
वङ्ग	-10.8467
▁नवम्बर	-10.8469
▁अर्थव्यवस्था	-10.847
▁१५०	-10.8472
गल्	-10.8474
▁प्राप्ते	-10.8474
विज्ञानं	-10.8474
वार्ता	-10.8477
▁दरिद्र	-10.848
▁प्रमुखाणि	-10.8483
स्थितेः	-10.8485
▁प्रकृत्या	-10.8485
▁आपण	-10.8487
मुण्ड	-10.8487
▁३४	-10.8488
पदवीं	-10.8489
प्रसार	-10.849
▁१९९१	-10.8492
▁क्षीण	-10.8492
ानुभूत	-10.8495
▁निर्वाचने	-10.8496
▁समु	-10.8497
कूल	-10.8501
▁आरूढ	-10.8502
▁प्रयोगो	-10.8503
▁मीन	-10.8503
▁बहुकाल	-10.8505
▁न्यायाधीश	-10.8507
दायित्व	-10.851
ind	-10.851
वर्तत	-10.8511
▁प्रभेद	-10.8516
विभक्त	-10.8519
घटन	-10.8522
▁भज	-10.8525
▁तपो	-10.8526
सर्वकारस्य	-10.8527
▁अधिकम्	-10.8529
▁दद	-10.8531
सम्बन्धिन	-10.8533
ेष्ट	-10.8533
ॄ	-10.8537
ीकरणे	-10.8538
▁उपरितन	-10.8538
▁विद्यालये	-10.8539
ist	-10.854
▁निर्वहति	-10.8541
▁आह्वान	-10.8541
▁बलात्	-10.8542
▁रागद्वेष	-10.8542
▁प्रलय	-10.8543
▁ही	-10.8546
▁समूहः	-10.8547
▁कथ्यन्ते	-10.8548
मिक	-10.8548
▁निसर्ग	-10.855
भवनम्	-10.8552
av	-10.8554
पित	-10.8554
▁महाविद्यालये	-10.8555
▁जङ्ग	-10.8559
▁पट्ट	-10.856
▁उद्भूत	-10.856
▁ग्रन्था	-10.856
▁निधन	-10.856
▁पक्षि	-10.8562
▁बाला	-10.8566
प्रतिपादक	-10.8567
मन्दिराणि	-10.8567
निवृत्त	-10.8569
कुले	-10.8569
ड्र	-10.8571
बाद	-10.8573
सन्देश	-10.8573
▁ब्राह्म	-10.8573
प्रतिपादन	-10.8573
गुल	-10.8574
ीभाषा	-10.8575
ग्राहक	-10.8575
▁गृहस्य	-10.8576
▁मूल्यं	-10.8577
▁अपरः	-10.8578
▁कोट	-10.8579
प्रतिष्ठ	-10.8579
▁महानुभाव	-10.858
पक्षि	-10.858
▁अष्टमे	-10.8582
पाय	-10.8584
सम्मेलन	-10.8588
पीडित	-10.8588
▁फारसी	-10.859
▁समर्थन	-10.8591
भिहित	-10.8591
भिनव	-10.8593
प्रवास	-10.8597
▁तंत्रिकातन्त्र	-10.8597
▁घात	-10.8598
▁अध्ययनेन	-10.8599
ts	-10.8599
▁मातर	-10.8601
▁चतुरस्र	-10.8604
▁पुस्तकस्य	-10.8606
योगे	-10.8606
ैका	-10.8609
▁समग्रे	-10.8615
▁गम	-10.8616
▁रामायणे	-10.8621
▁पुनर्जन्म	-10.8622
संक्रमण	-10.8623
▁कुत	-10.8625
▁बहुवार	-10.8626
▁क्षेत्राणि	-10.8627
त्र्य	-10.8628
▁कण्ठस्य	-10.8629
▁सन्देह	-10.8631
जलबन्धः	-10.8632
वास्तव्य	-10.8635
पटल	-10.8635
स्थापित	-10.8636
▁स्नातक	-10.8638
ायत्त	-10.8638
▁वक्षःस्थलस्य	-10.864
▁पण्डितः	-10.8641
▁सम्मुखं	-10.8641
प्रोक्त	-10.8643
ل	-10.8643
वाक्	-10.8644
▁शीर्ष	-10.8644
▁आराम	-10.8648
चिर	-10.8649
▁निर्धार	-10.865
▁दत्तवन्तः	-10.865
▁यच्छति	-10.8651
▁समुत्पन्न	-10.8653
▁राजस	-10.8653
▁प्रधानमन्त्रि	-10.8653
▁करिष्य	-10.8654
▁चास्य	-10.8654
▁अगस्त	-10.8654
▁ज्ञानेन	-10.8657
गमनं	-10.8657
▁अनुसृत्य	-10.8659
ेशन्	-10.8659
▁प्रतिनिधित्वं	-10.8664
▁दया	-10.8666
▁पश्यन्	-10.8666
नन्तर	-10.8668
▁मानवीय	-10.8668
▁अगस्त्य	-10.8668
पोल	-10.8668
रामः	-10.8671
विषयस्य	-10.8674
▁उत्तेजक	-10.8678
▁विश्वविद्यालयः	-10.868
बुद्धेः	-10.8681
▁बहवो	-10.8682
निलय	-10.8683
▁व्युत्पन्न	-10.8684
▁नामधेय	-10.8686
यश्च	-10.8686
▁सुकर	-10.869
▁परिणत	-10.869
▁वेगेन	-10.8692
▁जनेषु	-10.8699
श्रय	-10.8699
प्रभावः	-10.87
स्तदा	-10.8701
▁चमत्कार	-10.8701
▁सुनिश्चित	-10.8702
▁मानसिकस्पष्टतां	-10.8706
▁वैश्य	-10.8707
▁सर्वम्	-10.8708
▁समाविष्टाः	-10.8709
▁श्रीनिवास	-10.8715
▁विस्तारित	-10.8716
▁दिवा	-10.8719
ऋ	-10.8719
▁विस्तृता	-10.872
▁साहित्यं	-10.872
tt	-10.8722
मातुः	-10.8722
▁व्याकरणशास्त्र	-10.8723
▁लिपिः	-10.8723
शर्मा	-10.8723
ाणु	-10.8727
▁4	-10.8729
संस्थाः	-10.8729
▁पतिः	-10.8731
वेष्ट	-10.8731
चिद्	-10.8732
भवत्	-10.8735
तोष	-10.8736
▁एनिमे	-10.8736
▁निरूपण	-10.8738
▁ली	-10.8739
▁वयः	-10.8745
दिनाङ्के	-10.8745
▁अस्थापयत्	-10.8746
▁सौन्दर्यं	-10.8747
▁१९६२	-10.8747
पन्थ	-10.8748
▁आनीत	-10.8748
mb	-10.8751
ाचार्याणां	-10.8752
महोत्सवः	-10.8752
▁गगन	-10.8753
▁२०१७	-10.8753
ान्तर्	-10.8758
▁स्मर	-10.8759
सिया	-10.8759
वासी	-10.8761
▁विभाजन	-10.8764
▁कश्चिद्	-10.8766
▁समासः	-10.877
▁मुक्तः	-10.877
विकासः	-10.8771
▁॥“	-10.8772
tic	-10.8775
▁रक्षा	-10.8776
नल	-10.8777
▁शो	-10.8777
▁एवंविध	-10.878
▁नगरः	-10.878
ृण	-10.8782
▁अवगत	-10.8783
मिद	-10.8784
गुरुः	-10.8784
स्वप्न	-10.8785
न्ता	-10.8788
चित्रण	-10.879
ङ्ख	-10.8793
त्वाद	-10.8793
▁वैशिष्ट्यं	-10.8794
ऋषि	-10.8794
▁लक्षित	-10.8794
▁कश्यप	-10.8795
▁शक्तिं	-10.8798
▁जलेन	-10.8799
सङ्कल्प	-10.88
▁सरला	-10.8803
करणस्य	-10.8804
वीर्य	-10.8805
तनाव	-10.8806
शिय	-10.8807
▁भगवत्	-10.8807
▁रोम	-10.8808
▁लै	-10.8809
ियो	-10.8813
ोभय	-10.8814
▁प्रतिकूल	-10.8815
समा	-10.8816
भाषण	-10.8819
योगि	-10.8821
▁धातुपाठ	-10.8823
▁गया	-10.8824
पूर्वकम्	-10.8826
▁जन्मनः	-10.8827
▁अपरा	-10.8829
▁स्वप्ने	-10.8829
ैरेव	-10.8829
िष्यन्ति	-10.8831
▁सत्यम्	-10.8831
द्धि	-10.8832
शालायां	-10.8833
▁स्कन्द	-10.8836
▁ऋषभ	-10.8838
▁प्रयत्नं	-10.8839
▁दीक्षित	-10.8839
वाहक	-10.8841
▁२५०	-10.8841
▁आश्रमे	-10.8845
प्रतिष्ठा	-10.8846
सहस्राधिक	-10.8848
लूरु	-10.8849
▁कालिदासः	-10.8849
▁वृत्तान्त	-10.8849
▁जम्मू	-10.8851
▁अददात्	-10.8851
▁शुक्लयजुर्वेद	-10.8851
▁कादम्बरी	-10.8851
▁१९९२	-10.8852
▁भीमः	-10.8852
▁गृह्णन्ति	-10.8853
भास	-10.8853
▁आनन्दवर्धन	-10.8854
▁समाचार	-10.8854
▁विभज्यते	-10.8858
▁२०१८	-10.8859
▁उल्लिखितम्	-10.8859
▁कदलीफल	-10.886
▁विश	-10.8861
धावन	-10.8864
वच	-10.8866
▁पुरस्कारं	-10.8868
▁प्रणीतवान्	-10.8869
रोगः	-10.8869
ous	-10.8871
ियर्	-10.8874
▁अधिकृत्य	-10.8875
▁मूर्त	-10.8877
जातयः	-10.8877
▁ग्रामेषु	-10.8878
▁परिकल्पना	-10.8878
▁साफल्य	-10.8881
णस्य	-10.8882
▁मतानि	-10.8887
▁पुत्रं	-10.8888
स्पर्धाया	-10.8889
▁पलायन	-10.889
निरपेक्ष	-10.8891
▁अस्मान्	-10.8892
▁सोपान	-10.8894
▁पदवीं	-10.8894
▁टा	-10.8894
५२	-10.8895
ाणी	-10.8895
श्रौतसूत्र	-10.8896
▁व्यपदेश	-10.8896
धौ	-10.8896
शाली	-10.8896
ज्वल	-10.8896
ानामेव	-10.8898
▁वश	-10.8899
21	-10.8899
ीयन्ते	-10.8901
▁मरीच	-10.8902
▁पृष्ठभागे	-10.8905
▁सागरतीर	-10.8907
▁दोषाः	-10.8909
▁शताब्द्यां	-10.8911
यात्रायाः	-10.8911
▁सेतु	-10.8912
▁पदार्थानां	-10.8913
▁मनःसन्तोष	-10.8913
युगल	-10.8915
क्षेत्राणि	-10.8916
स्मान्	-10.8919
क्षित	-10.892
ार्थस्य	-10.892
▁व्यवहारे	-10.8922
▁यावद	-10.8922
विरोधि	-10.8923
▁भ्रातृ	-10.8923
श्लेष	-10.8924
▁एतासा	-10.8925
स्का	-10.8927
▁नगरेभ्यः	-10.8929
▁स्वकीया	-10.8933
▁पितामहः	-10.8933
ाभिमत	-10.8937
▁सप्ताह	-10.8939
भविष्य	-10.8939
संविधान	-10.894
ाध्यक्ष	-10.8941
फ़्	-10.8941
कलायाः	-10.8943
टीकायां	-10.8944
▁कति	-10.8946
▁नेतृत्वे	-10.895
▁भुवन	-10.8955
▁muscle	-10.8956
▁रोचते	-10.8956
▁कुर्युः	-10.8956
▁प्रतीकं	-10.8956
▁सुष्ठु	-10.8956
▁ग्रहीतुं	-10.8957
▁स्थितप्रज्ञ	-10.8957
ासनं	-10.8962
▁महात्मना	-10.8968
श्न	-10.8968
▁गृहीतवान्	-10.8968
तयः	-10.8969
▁औषधत्वेन	-10.8977
▁चन्दन	-10.8977
▁पम्प	-10.8978
▁अनुकरण	-10.8979
कारिका	-10.8985
वानिति	-10.8986
संवर्धन	-10.8987
▁नगरमिद	-10.8987
ाख्येन	-10.8988
मोचन	-10.8988
▁शिक्षाया	-10.8993
हन	-10.8995
▁बन्धु	-10.8996
▁सर्वासु	-10.8996
विद्यालये	-10.8998
परिच्छेद	-10.8999
▁अर्प	-10.9
▁फर्	-10.9
ोपलब्ध	-10.9001
ानपि	-10.9001
▁१९९०	-10.9003
▁ब्राह्मणाः	-10.9004
▁युद्धस्य	-10.9009
▁समर्थाः	-10.901
▁यस्यां	-10.9015
दै	-10.9016
ान्वय	-10.9016
▁वनं	-10.9017
र्स	-10.9017
चर्चा	-10.9018
वट	-10.9019
ोदक	-10.902
ासक्त	-10.902
रुद	-10.902
भित्ति	-10.902
▁अध्यापक	-10.9022
निबद्ध	-10.9024
▁वर्षात्	-10.9025
▁निन्द	-10.9026
मिश्रित	-10.9026
▁नाव	-10.9026
▁प्रशान्त	-10.9028
बाह्य	-10.9028
कार्यालय	-10.9028
▁बृहत्कथा	-10.9032
▁बुद्धेः	-10.9035
▁मह्य	-10.9037
▁परिवर्तनस्य	-10.9037
ादिभ्यः	-10.9038
one	-10.904
▁ध्वनिः	-10.9042
▁तुर्क	-10.9043
ाख्यः	-10.9044
▁वदन्	-10.9046
▁प्रयासः	-10.9046
▁प्राचीनं	-10.905
▁हल	-10.9051
यदि	-10.9052
ानुमान	-10.9053
▁गीतं	-10.9055
पुरस्कार	-10.9058
▁पुरोहित	-10.9058
मुनेः	-10.9059
▁Offic	-10.9059
▁९०	-10.9062
▁नश्यति	-10.9063
▁मार्गदर्शक	-10.9064
▁निर्धन	-10.9069
▁कारितवान्	-10.9069
▁मुद्राः	-10.9069
əm	-10.907
ात्मनो	-10.907
ोऽस्मि	-10.9071
▁त्यक्तवान्	-10.9071
▁ग्रन्थस्यास्य	-10.9071
▁वस्त्राणि	-10.9072
ङ्क्	-10.9074
मुनिः	-10.9075
वतां	-10.9078
रीति	-10.9079
▁विवेकानन्द	-10.9081
▁रक्षक	-10.9081
▁प्राणवायु	-10.9084
▁वयम	-10.9085
ाक्षी	-10.9086
गच्छत्	-10.9087
विधौ	-10.9088
000	-10.909
▁ताभ्या	-10.9091
सप्तति	-10.9093
युता	-10.9095
पार्श्व	-10.9098
समर्थ	-10.91
▁कर्तव्यः	-10.9101
▁जुलाई	-10.9101
▁तादात्म्य	-10.9101
वर्तमान	-10.9101
▁सीम	-10.9103
लर	-10.9103
▁यष्टि	-10.9105
▁विलास	-10.9106
▁राज्येषु	-10.9107
मनोविज्ञानस्य	-10.9107
▁सन्तुलित	-10.9107
शारीरिक	-10.9108
▁महाकवि	-10.9108
▁अनित्य	-10.9108
▁द्राविड	-10.9114
स्नेह	-10.9114
▁बाबा	-10.9115
▁राष्ट्रस्य	-10.9115
धर्माः	-10.9116
चिद	-10.9119
स्थानस्य	-10.9121
▁प्राधान्येन	-10.9127
सेन्	-10.9128
▁३६०	-10.9128
उच्च	-10.9128
▁सामग्री	-10.9129
ार्थक	-10.9129
शताब्दी	-10.9129
बीर	-10.913
तय	-10.9132
▁शब्दार्थ	-10.9133
मानस्य	-10.9138
▁Co	-10.9139
पण	-10.9139
पत्तेः	-10.9141
ैरपि	-10.9141
संस्कृतिः	-10.9142
पश्च	-10.9143
▁सम्यग्	-10.9144
गै	-10.9145
ाभास	-10.9145
▁विजयं	-10.9146
▁दमन	-10.9149
घण्ट	-10.9154
ाद्रि	-10.9155
तले	-10.9156
▁भिक्षु	-10.9156
करणे	-10.9157
प्रसङ्गे	-10.9157
शौच	-10.9159
मन्यत	-10.9161
मनुष्य	-10.9163
▁ऐतिहासिकं	-10.9165
▁कलि	-10.9165
शब्दानां	-10.9166
▁रचिताः	-10.9167
▁जन्मस्थान	-10.9168
▁अपश्यत्	-10.917
मीटर	-10.917
▁सितम्बर	-10.917
▁सोऽहम्	-10.917
▁ग्रन्थान्	-10.917
▁१९६४	-10.9171
तन्त्रे	-10.9172
▁प्रवहन्ति	-10.9172
▁मुद्रित	-10.9172
▁१९३०	-10.9174
▁तत्पश्चात्	-10.9174
वर्मण	-10.9174
▁हरिहर	-10.9175
▁स्त्रीणां	-10.9176
परित्याग	-10.9176
प्रेषण	-10.9178
▁व्यक्तिनां	-10.918
निग्रह	-10.9182
योक्त	-10.9182
▁महापुरुष	-10.9183
▁भुक्त	-10.9184
णेन	-10.9184
▁खाद	-10.9184
▁परिचित	-10.9185
▁भासते	-10.9186
▁एण्ड्	-10.9187
▁ईदृश	-10.919
▁स्तोत्र	-10.9192
▁योग्यता	-10.9193
▁विचार्य	-10.9193
▁आगता	-10.9194
एन्	-10.9195
जलं	-10.9196
▁बलस्य	-10.9197
▁तण्डुलः	-10.9197
▁षष्ठे	-10.9198
▁बिजापुर	-10.9199
▁कल्पते	-10.92
▁अपेक्षा	-10.9201
▁यष्ट	-10.9202
ance	-10.9202
▁अध्याये	-10.9202
▁द्रष्टव्यः	-10.9203
▁भाग्य	-10.9204
▁वायोः	-10.9204
▁धर	-10.9205
▁उपायः	-10.9205
▁पेर	-10.9206
चक्षुष	-10.9207
शीत	-10.9208
▁परिष्कार	-10.9208
धिया	-10.9209
ाशयः	-10.921
▁चलन	-10.921
▁३७	-10.921
मिह	-10.921
वदन	-10.9212
▁बाल्यकाल	-10.9212
▁व्याप्ति	-10.9212
▁त्वचा	-10.9213
▁भगिनी	-10.9214
▁पर्णानि	-10.9214
▁सम्भाषण	-10.9216
कृष्य	-10.9216
▁साहाय्य	-10.9218
▁दामोदर	-10.9218
पत्रम्	-10.9219
सिद्धान्तानां	-10.922
स्थायिभाव	-10.9221
वर्तते	-10.9224
वंशः	-10.9227
देक	-10.923
▁वयम्	-10.9232
▁प्रत्याहार	-10.9233
▁सुलभं	-10.9233
▁इत्येवं	-10.9234
धारक	-10.9236
आई	-10.9241
तन्	-10.9242
बाध	-10.9244
नृप	-10.9244
▁प्रणीतः	-10.9244
खण्डस्य	-10.9244
▁संसारस्य	-10.9245
▁महाभाष्ये	-10.9245
▁शोकः	-10.9247
▁अपत्य	-10.9248
▁लता	-10.9249
बालक	-10.9253
▁३३	-10.9254
मन्दिरेषु	-10.9256
▁एकाग्रतां	-10.9256
किलोमीटर्	-10.9256
मया	-10.9257
▁हैदराबाद	-10.9257
ङ्घ	-10.9257
▁तमवर्ष	-10.9261
▁परोक्ष	-10.9263
दातु	-10.9264
▁दैर्घ्यं	-10.9265
पृ	-10.9266
As	-10.9266
▁दम	-10.9266
तत	-10.9266
रहिता	-10.9267
▁मुर	-10.9268
▁अतिशय	-10.9272
▁देवताः	-10.9274
रित्य	-10.9275
▁हानिः	-10.9277
▁स्वदेश	-10.9277
▁University	-10.9279
▁अरचयत्	-10.9279
▁डिजिटल	-10.9279
▁प्राविशत्	-10.9279
▁सञ्जायते	-10.9279
▁इण्डियन्	-10.9279
ाख्यस्य	-10.9279
पदार्थानां	-10.9279
▁विनष्ट	-10.9279
▁मन्तव्य	-10.928
▁स्वतन्त्रता	-10.9281
▁साहाय्यम्	-10.9281
▁परिणम	-10.9282
▁उवाच	-10.9283
▁किञ्चिद्	-10.9283
▁धारयितुं	-10.9283
▁भारतीयसंविधान	-10.9284
▁शक्यम्	-10.9285
▁पृच्छति	-10.9288
मिच्छ	-10.9288
लग्न	-10.929
माद	-10.9292
▁कृषिकार्य	-10.9293
▁गण्यते	-10.9295
▁सुन्दराणि	-10.9298
सदृशं	-10.9298
▁पीड	-10.9299
▁सोऽ	-10.9301
वृत्तान्त	-10.9302
▁ब्ल	-10.9302
▁उभयत	-10.9303
ara	-10.9303
▁विश्वेश्वर	-10.9306
फु	-10.9306
▁जीवस्य	-10.9307
ava	-10.9308
▁आग्रा	-10.9308
▁सफलता	-10.9308
जन्या	-10.9309
▁पत्राणि	-10.9309
▁जनयन्ति	-10.931
ट्टु	-10.931
नया	-10.9311
▁निवृत्त	-10.9312
ेयम्	-10.9312
▁ग्रन्थि	-10.9313
▁कुतः	-10.9314
▁मध्यभाग	-10.9314
साधारण	-10.9318
▁नन्दि	-10.9318
▁नेत्रे	-10.932
द्भुत	-10.932
न्दि	-10.9321
सम्पर्क	-10.9322
▁संरक्ष	-10.9322
▁उत्स	-10.9322
▁बहुत्र	-10.9326
▁मण्डलः	-10.9327
▁असम्भव	-10.9327
▁राज्ञ्या	-10.9328
वदत्	-10.9328
▁राजगुरुः	-10.9328
मत्य	-10.9331
ोऽनु	-10.9333
अथ	-10.9334
र्या	-10.9338
भु	-10.9339
सै	-10.9341
▁प्रहसन	-10.9342
पक	-10.9342
▁गर्त	-10.9343
▁खानिज	-10.9344
▁परीक्षणं	-10.9347
सर्वकार	-10.9348
▁प्रतिफल	-10.9349
योजयन्ति	-10.935
▁नाद	-10.9351
▁ताडन	-10.9351
▁कीदृश	-10.9355
▁कड	-10.9356
ञ्जय	-10.9357
स्थाः	-10.9357
▁प्रजाः	-10.9358
▁अरब	-10.9358
न्यु	-10.9362
ard	-10.9362
▁नृसिंह	-10.9362
▁रागस्य	-10.9366
दुर्गं	-10.9366
स्वामिना	-10.9366
▁पोषक	-10.9368
चम्पू	-10.9371
ोद्यमः	-10.9373
ारण्यक	-10.9374
ान्तः	-10.9375
समाजस्य	-10.9378
सम्पत्ति	-10.9378
ह्व	-10.9379
▁सत्या	-10.9379
▁उत्पादनं	-10.938
▁नियमन	-10.9381
य्यः	-10.9382
रूपता	-10.9386
भूषित	-10.9387
दात्त	-10.9388
▁औरङ्गजेब	-10.9388
▁छन्दश्शास्त्रम्	-10.9388
▁कृत्रिम	-10.9388
▁अवकाश	-10.9389
▁१९४२	-10.9389
▁प्रविशन्ति	-10.939
▁वर्धन्ते	-10.9392
सूत्रम्	-10.9392
मुन्	-10.9392
▁ब्राह्मी	-10.9394
▁लाभाः	-10.9395
▁राशि	-10.9396
▁सामञ्जस्य	-10.9397
▁पर्यटनस्थलानि	-10.9397
▁जैनधर्म	-10.9398
त्रापि	-10.9399
▁गतवन्तः	-10.9399
ादीनाम्	-10.9399
त्तम	-10.94
▁कतिपयानि	-10.94
▁भ्राता	-10.9401
▁एकता	-10.9402
▁निमेष	-10.9402
▁दशक	-10.9402
▁वन्य	-10.9402
ादेश	-10.9403
▁दक्षिणा	-10.9403
▁सहानुभूति	-10.9404
▁अवयव	-10.9405
▁ऊह	-10.9405
▁विरचितवान्	-10.9406
▁सर्वतः	-10.9407
▁अलौकिक	-10.9408
समाधि	-10.941
पिटक	-10.941
ge	-10.941
भावो	-10.941
▁आधारित	-10.9411
▁कू	-10.9413
▁उपासना	-10.9414
▁मानसिकस्वास्थ्य	-10.9416
▁कण्ठे	-10.9419
▁विमानस्थानक	-10.942
िला	-10.9421
▁प्रकाशयति	-10.9421
परिधि	-10.9421
ion	-10.9422
▁जगद	-10.9424
▁महद	-10.9425
▁नियोजित	-10.9425
▁प्रख्यातः	-10.9425
र्वाचीन	-10.9427
स्तूप	-10.9433
▁स्थलस्य	-10.9437
मुक्तम्	-10.9439
प्रयास	-10.9441
विशारद	-10.9442
bi	-10.9443
▁प्राधान्यं	-10.9444
▁कान्ति	-10.9446
ादर	-10.9447
▁सम्पद	-10.9447
संहितायाः	-10.9447
मूर्तेः	-10.9447
▁अक्षि	-10.9447
▁गताः	-10.9448
▁उत्त	-10.9448
ex	-10.9449
ोपनिषत्	-10.9449
▁एकान्त	-10.945
▁वृष्टिः	-10.9451
▁स्थ	-10.9451
▁विशेषता	-10.9452
स्राव	-10.9452
pr	-10.9452
ub	-10.9454
▁सर्वभूत	-10.9454
▁प्रयोजनानि	-10.9455
▁दिश	-10.9458
▁पत	-10.946
द्वेष	-10.946
िष्यते	-10.9461
ऋण	-10.9461
यता	-10.9463
▁प्रान्त	-10.9464
ोढ	-10.9465
ish	-10.9467
▁असत्य	-10.9468
वतार	-10.9468
ाभिध	-10.9469
▁मोहन	-10.9473
ाणाञ्च	-10.9473
पित्र	-10.9473
▁अग	-10.9473
परिहार	-10.9474
जनसङ्ख्या	-10.9477
दृक्	-10.9481
पुरुषस्य	-10.9483
अयं	-10.9484
▁नाटकानि	-10.9484
ब्ध	-10.9485
go	-10.9487
ैन्	-10.9489
तॄणां	-10.949
▁आङ्गल	-10.9491
▁कान्त	-10.9492
▁बुद्धस्य	-10.9493
बोधन	-10.9493
▁तट	-10.9494
ङ्गुल	-10.9496
नगरेण	-10.9496
ीभवति	-10.9499
ો	-10.9499
▁दरीदृश्यते	-10.95
▁सांसारिक	-10.95
▁मोहम्मद	-10.95
▁सम्मत	-10.9501
▁कर्पूर	-10.9501
▁आशीर्वाद	-10.9501
▁कथानक	-10.9504
▁अभियोग	-10.9508
▁आनीय	-10.9512
जागरूकतायाः	-10.9514
▁उत्तरभारत	-10.9515
▁निदान	-10.9515
▁ज्ञातम्	-10.9516
ङग	-10.9516
ल्व	-10.952
▁अलि	-10.9523
▁La	-10.9524
ीणां	-10.9525
▁निषिद्ध	-10.9526
राजवंश	-10.9527
▁अस्त	-10.9529
मृत्यु	-10.9529
▁एतदर्थ	-10.9531
▁पलायित	-10.9533
▁परिवर्त	-10.9533
▁मन्त्री	-10.9536
ोपकरण	-10.954
▁क्रियाकलाप	-10.9542
णु	-10.9544
▁योगदर्शन	-10.9546
भ्युप	-10.9547
▁पीठ	-10.9548
भौतिक	-10.9548
▁रोगस्य	-10.955
ुत्पत्ति	-10.9551
▁तादृशी	-10.9551
सदन	-10.9552
स्थानेषु	-10.9552
भागेषु	-10.9552
फो	-10.9554
धार्मिक	-10.9554
निषेध	-10.9554
▁प्रसृत	-10.9555
▁कर्क	-10.9555
भाष्यम्	-10.9556
ादीन्	-10.9557
तायै	-10.9558
गायक	-10.9559
धुना	-10.956
नौका	-10.9561
▁पातु	-10.9562
शास्त्रज्ञ	-10.9567
तादृश	-10.9568
▁साम्राज्यस्य	-10.9568
सर्जन	-10.9568
▁अभिनव	-10.9569
सन्धान	-10.9571
सेवक	-10.9571
विद्वान्	-10.9571
▁पक्षे	-10.9573
▁अनयोः	-10.9578
▁पादाः	-10.9578
▁अवलम्ब	-10.9578
▁पात्रं	-10.958
ऽयं	-10.9582
ोपनिषद्	-10.9585
▁बृहत्तमः	-10.9589
▁जनकः	-10.959
▁मिथिला	-10.9591
दिनेषु	-10.9592
▁नीच	-10.9592
▁धातोः	-10.9593
▁अनुवर्त	-10.9593
▁केन्द्रशासित	-10.9594
ानुभूति	-10.9596
▁प्राचीनः	-10.9597
स्मारक	-10.9597
गच्छन्ति	-10.9597
▁रूपम्	-10.9597
ारि	-10.96
यद	-10.9601
▁काङ्ग्रेस्	-10.9601
▁शास्त्री	-10.9602
कारणं	-10.9603
संस्कारः	-10.9604
▁प्रमुखनगर	-10.9605
ोऽर्थ	-10.9607
▁विशेषरूपेण	-10.9609
್	-10.9612
પ	-10.9612
▁अर्च	-10.9612
▁मोर	-10.9613
▁वृत्तरत्नाकर	-10.9613
▁लाहोर	-10.9613
▁ग्रन्थो	-10.9615
▁शताधिक	-10.9617
▁शूर	-10.9617
▁विज्ञानं	-10.9617
▁प्रेरयति	-10.9618
▁तमवर्षे	-10.9619
▁श्रावण	-10.9621
▁प्रामाण्य	-10.9621
▁कृतवन्तौ	-10.9622
▁श्रीहर्ष	-10.9622
▁अधिकानि	-10.9622
टल	-10.9625
प्राकृत	-10.9626
शिक्षक	-10.963
▁भयं	-10.963
▁वीर्य	-10.9631
▁उपवास	-10.9631
रूपरेखा	-10.9633
रत्	-10.9635
▁गोधूमः	-10.9635
न्तर्भाव	-10.9637
▁विनोद	-10.9638
▁बहून्	-10.9639
नगर्यां	-10.9639
ical	-10.964
▁वीक्षण	-10.964
पौरुषेय	-10.9641
▁अङ्गम्	-10.9641
ावसान	-10.9643
ावपि	-10.9646
▁बन्द	-10.9646
▁संस्थया	-10.9648
ऋष	-10.9648
▁सन्ध्या	-10.9648
▁शान्तिं	-10.9649
ice	-10.9652
▁पृथग्	-10.9652
▁गूढ	-10.9652
▁हेम	-10.9654
▁&	-10.9656
▁दी	-10.9657
▁आइ	-10.9659
▁श्रीधर	-10.966
▁क्षय	-10.966
▁चतुरङ्ग	-10.9661
▁मार्गं	-10.9662
महर्षिः	-10.9665
▁सहजक्रिया	-10.9666
ुल्ल	-10.9666
सौकर्य	-10.9668
▁निदर्शन	-10.9668
निर्वहण	-10.9668
बेङ्गळूरु	-10.9669
निद्रा	-10.9671
▁मुग्ध	-10.9673
नेव	-10.9677
▁प्रदर्शनं	-10.968
▁चतुर्थः	-10.9681
▁यादृश	-10.9681
▁साम्प्रदायिक	-10.9682
विभाजन	-10.9683
मठः	-10.9684
▁गुजराती	-10.9684
▁वेदार्थ	-10.9687
रेलमार्ग	-10.9687
▁स्नानं	-10.9688
थो	-10.9688
यैव	-10.9689
दयः	-10.969
▁सस्यानि	-10.969
्मा	-10.9692
शताब्द्यां	-10.9693
▁सिन्ध	-10.9693
▁हानि	-10.9696
भारती	-10.9697
▁कटि	-10.9698
प्रती	-10.9698
▁विराम	-10.9702
चतुर्	-10.9702
ke	-10.9706
▁संरेखण	-10.9708
▁जार्ज	-10.971
न्ट	-10.9714
भ्राम	-10.9714
▁आम्र	-10.9717
▁महत्त्वपूर्णाः	-10.9717
निधिः	-10.9718
ोत्साह	-10.9719
राज्‍य	-10.9723
▁आकर्ष	-10.9724
▁निश्चीयते	-10.9726
मिदम	-10.9726
▁पटना	-10.9726
जानी	-10.9727
▁अकारयत्	-10.9727
▁7.	-10.9728
यित	-10.9731
शिखा	-10.9731
▁विपुल	-10.9732
परिषद्	-10.9732
▁रूक्ष	-10.9732
▁रोगाः	-10.9733
▁प्रातःकाले	-10.9734
▁इत्यर्थ	-10.9737
▁पुत्रौ	-10.9738
▁कारणीभूत	-10.9738
▁क्रीडायां	-10.9738
▁२००३	-10.9739
तद्धित	-10.974
▁चेतना	-10.9741
▁धारयन्ति	-10.9742
स्पष्ट	-10.9742
य्या	-10.9743
▁भ्रमणं	-10.9743
रभ	-10.9744
▁एकवर्ष	-10.9747
प्राप्त्यै	-10.9748
भूताः	-10.9748
▁सन्तुलनं	-10.9749
▁विकासस्य	-10.975
लेक्	-10.9751
▁हत	-10.9754
▁ईश	-10.9755
▁मनुष्याः	-10.9757
▁प्रतिष्ठापित	-10.9757
क्षिप्त	-10.976
नादि	-10.9764
▁निन्दा	-10.9765
▁जून्	-10.9766
▁क्रमाङ्कस्य	-10.9767
मार्गाः	-10.9767
▁भिन्नं	-10.9767
min	-10.9768
ाथ	-10.977
ाद्वैत	-10.977
▁भूमिं	-10.9772
▁नृत्यं	-10.9775
दीन	-10.9776
▁सैव	-10.9778
शासनस्य	-10.978
▁रै	-10.9781
पूर्णिमा	-10.9782
▁पाणिन	-10.9783
समुच्चय	-10.9784
▁अभय	-10.9784
▁क्री	-10.9784
▁विशालं	-10.9788
▁लेखा	-10.979
▁गुहाः	-10.979
मस्त	-10.9792
▁प्रकल्प	-10.9796
▁गोपुर	-10.9796
▁द्विज	-10.9797
ातिशय	-10.9797
▁अवधि	-10.98
ायतन	-10.9801
मूढ	-10.9801
ear	-10.9802
देशेन	-10.9803
वाटिका	-10.9806
ासीदिति	-10.9807
▁वैर	-10.981
▁धारयन्	-10.9812
ट्रि	-10.9812
संस्थानां	-10.9812
▁मेष	-10.9812
▁चान्द्र	-10.9813
▁आङ्ग्लेय	-10.9813
पदवी	-10.9814
▁शुक	-10.9816
▁प्रेक्षणीयस्थान	-10.9816
▁क्रान्तिकारिणः	-10.9817
मन्द	-10.9818
▁संस्कृतसाहित्य	-10.9818
वयस्क	-10.9818
▁मन्त्राः	-10.9819
▁मिश्रित	-10.9819
▁स्वधर्म	-10.982
▁ग्रन्थानां	-10.9825
दीप्त	-10.9831
▁कक्षाया	-10.9833
▁सायण	-10.9834
▁आरब्ध	-10.9834
प्रियः	-10.9837
▁अण्ड	-10.9837
▁Institute	-10.984
ोत्तेजक	-10.984
▁कुबेर	-10.984
▁औपचारिक	-10.9841
▁आयुध	-10.9841
▁वैदेशिक	-10.9841
होर	-10.9842
खि	-10.9842
▁वाहनमार्गः	-10.9842
▁दग्ध	-10.9843
▁इत्युक्त्वा	-10.9843
▁विपर्यय	-10.9845
वंशीयाः	-10.9845
▁कालक्रमेण	-10.9846
▁अनेकान्	-10.9848
▁विलम्ब	-10.9848
▁आङ्ग्लसर्वकार	-10.9848
▁भावार्थः	-10.9849
▁३००	-10.9849
▁सर्वोत्तम	-10.985
सैनिकाः	-10.9851
▁शब्देन	-10.9851
वृद्धेः	-10.9851
नेतृ	-10.9851
▁`	-10.9852
▁मुनिः	-10.9853
त्त्व	-10.9855
▁गौरी	-10.9855
▁भ्रमण	-10.9856
िणो	-10.9857
सत्ता	-10.9857
00	-10.9858
ायुध	-10.9858
ाभिमान	-10.9858
▁उपनिषदः	-10.9859
▁चार्वाक	-10.986
".	-10.9861
▁विरचिता	-10.9861
▁महाकाल	-10.9861
्यति	-10.9862
▁तेजः	-10.9863
▁उपाध्याय	-10.9865
ल्लिखित	-10.987
प्राणि	-10.9871
सव	-10.9873
▁लङ्का	-10.9876
▁अन्तिमे	-10.9876
▁उल्	-10.9876
अत्र	-10.9877
यानम्	-10.9879
लौकिक	-10.9879
सम्पद	-10.9881
कूप	-10.9881
▁अन्ततः	-10.9881
▁एतन्	-10.9882
वासि	-10.9882
युज	-10.9882
▁पर्वते	-10.9883
▁संसारे	-10.9884
▁प्रसन्नः	-10.9884
▁प्रयोगं	-10.9885
▁शाकटायन	-10.9886
▁पूरक	-10.9886
ेतिहासे	-10.9887
▁जनेभ्यः	-10.9887
रथः	-10.9889
▁भागम्	-10.989
▁मानक	-10.989
▁१९७५	-10.9894
▁तरङ्ग	-10.9895
▁अम्ल	-10.9896
समूहः	-10.9898
▁जयसिंह	-10.99
▁पितरौ	-10.9902
मुक्ति	-10.9903
▁अवसरः	-10.9903
ोल्लेखः	-10.9903
▁भारती	-10.9904
▁),	-10.9906
उद्यान	-10.9908
परम्परायां	-10.9909
ोरा	-10.9911
पश्य	-10.9912
शर	-10.9912
▁प्रायशः	-10.9913
मूलक	-10.9915
स्मृत्य	-10.9918
▁दक्षिणभारतस्य	-10.9918
नैव	-10.992
▁विशेषा	-10.9924
▁ब्रह्मसूत्र	-10.9924
विल	-10.9924
दैवत	-10.9926
धत्ते	-10.9929
▁उपयुज्य	-10.9931
▁अनुगुण	-10.9933
▁धन्य	-10.9934
पत्	-10.9934
▁भगवन्त	-10.9936
क्रोश	-10.9936
▁इन्द्रस्य	-10.9937
बार	-10.9939
वसति	-10.994
ारभ्य	-10.9941
▁काली	-10.9943
▁आहारस्य	-10.9944
गत्य	-10.9944
५००	-10.9944
क्रमस्य	-10.9945
▁तुलसी	-10.9945
प्रज्ञ	-10.9945
▁पृ	-10.9948
▁पिब	-10.995
मन्तर	-10.9951
वाप	-10.9952
धर्मसूत्र	-10.9952
▁देवालयाः	-10.9952
डल	-10.9952
▁एतावत्	-10.9953
▁कृत्स्न	-10.9955
▁विन्ध्य	-10.9957
▁ह्रस्व	-10.9957
▁तदतिरिक्तं	-10.9957
▁व्रज	-10.9957
▁प्रागेव	-10.9958
▁१९४८	-10.9959
शालायाः	-10.9959
तीर्थं	-10.9965
चयन	-10.9965
▁अरबी	-10.9968
शरीरं	-10.9968
वेल	-10.997
▁पीडा	-10.9971
▁तावता	-10.9972
▁उपसर्ग	-10.9973
▁रेलस्थानक	-10.9975
▁पठति	-10.9976
वस्तूनाम्	-10.9976
इन्	-10.9976
▁वाल्मीकि	-10.9978
▁चरक	-10.9978
▁शील	-10.998
्यता	-10.9983
▁l	-10.9984
कर्मक	-10.9984
▁त्रिधा	-10.9985
▁आरभ्यते	-10.9986
▁कुरुते	-10.9988
▁प्रभाविताः	-10.9991
संस्थानम्	-10.9991
ोपाधि	-10.9991
▁सम्भवतः	-10.9992
ब्ज	-10.9998
ेन्दु	-10.9999
▁आगन्तु	-11
▁स्थितौ	-11.0001
▁अन्तर्भूत	-11.0003
▁भस्म	-11.0005
तन्तुः	-11.0007
ृणा	-11.0008
कृतीनां	-11.0009
▁निशा	-11.001
▁दीर्घा	-11.0013
गृहम्	-11.0013
मत्या	-11.0014
▁चणक	-11.0015
तंत्रिका	-11.0017
बोधक	-11.0017
▁विपणन	-11.0018
▁हेतुः	-11.0019
पीडन	-11.002
आर्थिक	-11.0021
ध्रुव	-11.0022
▁विरोधः	-11.0022
मितं	-11.0022
▁शिक्षायाः	-11.0023
क्रोध	-11.0024
▁दिग्	-11.0024
पाणिनीय	-11.0025
▁महानगर	-11.0026
▁नगरेषु	-11.0027
सन्दर्भ	-11.0028
▁गर्भगृह	-11.0029
पेक्षा	-11.0029
▁बाजार	-11.0031
▁जैविक	-11.0033
▁सम्मेलन	-11.0035
▁सुन्दरः	-11.0037
▁युग्म	-11.0037
नार्	-11.0039
ens	-11.004
वादने	-11.0046
शाखायाः	-11.0047
▁मुद्रण	-11.0047
▁पुष्टि	-11.0048
▁प्रसिद्धिः	-11.0048
ुद्धृत	-11.005
▁ज्ञानयोग	-11.0051
▁असुर	-11.0052
ં	-11.0054
▁श्रौत	-11.0055
न्तो	-11.0056
▁सुत	-11.0058
▁बृहत्तम	-11.0058
▁पतितः	-11.006
▁परिध	-11.0062
ज़ा	-11.0063
▁व्यवहारस्य	-11.0064
▁३९	-11.0065
▁तीर्थस्य	-11.0067
स्पृह	-11.0067
▁विशिष्टः	-11.0068
श्रृङ्खला	-11.0069
▁क्रान्तिकारिणा	-11.0073
▁एकमात्र	-11.0074
▁Translation	-11.0074
▁फरवरी	-11.0074
ુ	-11.0074
संकोचन	-11.0075
▁अवहत्	-11.0075
ology	-11.0075
▁सुधारयितुम्	-11.0075
▁अभवताम्	-11.0075
▁ईशान्य	-11.0076
▁१९९४	-11.0076
▁अश्वत्थ	-11.0076
▁वेत्ति	-11.0077
▁वृक्क	-11.0078
▁साधयितुं	-11.0078
▁शक्यः	-11.0082
ेच्छ	-11.0082
दुर	-11.0082
▁इङ्ग्लैण्ड्	-11.0083
र्जित	-11.0084
ध्यात्म	-11.0085
▁पुनरपि	-11.0088
▁उद्भवति	-11.009
▁समर	-11.0091
▁पाचनतन्त्र	-11.0093
▁संस्थापकः	-11.0096
▁व्युत्पत्ति	-11.0099
▁काव्यालङ्कार	-11.0099
▁International	-11.01
▁दुग्धं	-11.0101
▁परीक्षित	-11.0102
भूम	-11.0102
पतन	-11.0102
कुर	-11.0103
▁यात्रिकाः	-11.0104
मिते	-11.0104
सति	-11.0105
Bh	-11.0105
शोध	-11.0108
्यताम्	-11.0109
▁आधारभूत	-11.0112
कर्तृत्व	-11.0115
ोत्थ	-11.0116
▁वक्रोक्ति	-11.0118
▁सौकर्य	-11.0119
▁सिद्धयति	-11.0119
▁जयप्रकाश	-11.012
दिशति	-11.012
▁संसाधन	-11.0124
वने	-11.013
▁रचय	-11.0132
▁बाधा	-11.0133
▁वायुमण्डल	-11.0133
▁समुच्चय	-11.0134
▁माध्यमिक	-11.0134
▁कारितम्	-11.0137
िष्यामि	-11.0138
मृत्तिका	-11.0141
पवित्र	-11.0142
वहन	-11.0143
▁गृह्यसूत्र	-11.0144
▁बर	-11.0144
महिष	-11.0145
▁प्राप्तानि	-11.0147
▁प्रयाग	-11.0149
▁समयं	-11.0149
▁१९७२	-11.0149
प्रकारः	-11.015
रात्रि	-11.015
हङ्कार	-11.0151
त्वाच्च	-11.0151
▁अभ्यासे	-11.0153
▁ध्येय	-11.0153
पञ्चक	-11.0154
▁चोळ	-11.0155
प्रक्षेपण	-11.0156
▁आन्ध्र	-11.016
▁त्रिपुर	-11.0161
▁समर्पण	-11.0163
ावश्यकता	-11.0165
▁वास्तु	-11.0166
▁Na	-11.0167
▁ग्रहाणा	-11.0168
▁बड	-11.017
▁अधर्म	-11.0171
वंशज	-11.0173
तन्त्रज्ञान	-11.0174
▁प्रयत	-11.0177
▁इत्याद्य	-11.0179
▁लिखितानि	-11.0179
▁नामकस्य	-11.0181
▁निस्	-11.0181
▁चीनदेश	-11.0183
ारम्भः	-11.0183
▁शरीरेण	-11.0185
ित्य	-11.0188
▁ध्यानचन्द	-11.0191
▁कारिका	-11.0191
port	-11.0193
ादेः	-11.0193
ನ	-11.0193
▁द्रौपदी	-11.0193
ગ	-11.0193
▁अत्युन्नत	-11.0194
▁site	-11.0194
▁प्रादेशिक	-11.0194
हानि	-11.0195
▁१९६१	-11.0195
▁स्यादिति	-11.0195
▁वायुमार्गेण	-11.0196
ec	-11.0196
▁लभन्ते	-11.0196
तर्हि	-11.0198
▁सम्पद्यते	-11.0199
▁अष्टौ	-11.02
▁भवत्येव	-11.02
▁ब्रा	-11.02
▁सिध्द	-11.02
▁गर्ग	-11.0202
▁सर्वश्रेष्ठ	-11.0202
दासस्य	-11.0205
कथाः	-11.0206
बर्ग	-11.0207
▁बह्व	-11.0209
▁आसक्ति	-11.021
र्भव	-11.0211
धीत	-11.0211
▁वैक्रम	-11.0214
▁सर्वासा	-11.0217
▁छिद्र	-11.0217
▁पण्डिताः	-11.0217
वैराग्य	-11.0222
▁चोटः	-11.0222
▁उमा	-11.0222
▁प्रतिक्षण	-11.0223
सृष्ट	-11.0228
▁सम्यक्तया	-11.0231
▁शोभा	-11.0231
▁जान्	-11.0232
रन्ध्र	-11.0233
▁एवास्ति	-11.0242
▁व्यव	-11.0243
▁सामर्थ्य	-11.0243
मेला	-11.0245
लङ्कृत	-11.0246
श्रिय	-11.0246
▁सुविधा	-11.0247
ीकरणाय	-11.0247
▁स्वस्व	-11.0248
▁पुष्कर	-11.0248
▁कन्द	-11.0249
▁पूर्णा	-11.0251
ीर्ण	-11.0252
▁उत्कल	-11.0253
वाण्या	-11.0253
कर्तारः	-11.0253
▁रचितम्	-11.0256
ावधि	-11.0258
▁जैनदर्शन	-11.0258
बाधा	-11.0258
येत	-11.0259
ल्ली	-11.026
▁सञ्चालन	-11.0261
▁वशीकृत	-11.0262
चेष्टा	-11.0262
व्यवहारस्य	-11.0262
▁अतीत	-11.0263
▁पूर्वभागे	-11.0265
▁शशि	-11.0266
राजनैतिक	-11.0266
▁सूत्रेषु	-11.0266
प्रवर्तक	-11.0267
▁कीट	-11.0268
▁प्रविष्टः	-11.0269
▁प्रकाशः	-11.0269
मार्गं	-11.027
▁मनोवैज्ञानिकाः	-11.0271
करणेन	-11.0272
व्र	-11.0274
मात्राया	-11.0275
ाधिकारि	-11.0276
ीकर्तुं	-11.0277
▁महाभारतम्	-11.028
▁पृच्छ	-11.0281
त्रयम्	-11.0281
ावेव	-11.0282
▁विधिः	-11.0282
▁वाच्य	-11.0287
पदम्	-11.0289
▁प्रयोजनम्	-11.029
ताडन	-11.029
शास्त्रिण	-11.0291
▁प्राचीनकाल	-11.0291
mp	-11.0293
▁कन्दुकं	-11.0294
बिन्दुः	-11.0294
ट्टि	-11.0297
▁संसद	-11.0301
रिक्	-11.0302
▁स्था	-11.0302
ोत्सवे	-11.0303
रहितं	-11.0303
मासतः	-11.0306
▁वर्षद्वय	-11.0307
▁जर्मन	-11.0308
ान्तिक	-11.0308
্	-11.0314
▁जीमूतवाहन	-11.0314
▁निवारयितुं	-11.0314
▁अस्माकम्	-11.0314
▁भृश	-11.0314
▁बह्व्यः	-11.0315
▁१९९५	-11.0315
▁तीर्थक्षेत्राणि	-11.0316
▁पठित्वा	-11.0317
▁साधकस्य	-11.0317
▁कुमारपाल	-11.0318
▁कर्णाटकराज्ये	-11.0319
▁गर्भाशय	-11.0319
▁मुख्यालयः	-11.0319
▁सर्वोच्च	-11.0321
नट	-11.0321
▁उपदिष्ट	-11.0321
▁भल्ल	-11.0322
▁१९२०	-11.0322
▁वेदा	-11.0323
▁सूत्रे	-11.0323
▁नाम्नि	-11.0324
▁चिन्तयति	-11.0324
▁राजन्	-11.0326
▁प्रतिदिनम्	-11.0327
Sh	-11.0328
प्रो	-11.0328
▁स्तन	-11.0331
▁पिष्ट	-11.0333
tra	-11.0334
▁समुपलभ्यते	-11.0335
▁शौर्य	-11.0335
तात्पर्य	-11.0336
▁उल्लेखनीय	-11.0337
▁इत्येषा	-11.0338
सुन्दरी	-11.0338
▁पर्वताः	-11.034
रेखाया	-11.034
व्यतिरिक्त	-11.034
▁गाव	-11.0342
काव्यम्	-11.0343
▁आवेग	-11.0345
▁किशोर	-11.0345
▁अतिथि	-11.0345
घु	-11.0347
प्रभेद	-11.0347
चकार	-11.0348
▁उत्तमा	-11.035
पर्वते	-11.0353
▁प्रमुखानि	-11.0353
▁लोप	-11.0354
▁प्रदर्शिता	-11.0355
ागमन	-11.0356
▁सामन्त	-11.0357
▁प्राप्तव्य	-11.0359
सिन्	-11.0359
द्भिः	-11.0359
पत्तने	-11.0364
▁करो	-11.0366
▁१९९७	-11.0368
▁Po	-11.0368
▁महेश्वर	-11.0368
त्रिंश	-11.0368
न्ड	-11.0369
मज	-11.0369
▁१९९८	-11.037
ci	-11.037
ाभ्याम्	-11.037
▁संघ	-11.0372
22	-11.0373
▁भार्या	-11.0373
स्टि	-11.0377
▁रचनाकाल	-11.0378
श्चन्द्र	-11.038
▁व्यर्थ	-11.0385
शत्रु	-11.0388
▁पारिजात	-11.039
▁विज्ञानस्य	-11.0391
▁पुरो	-11.0391
नुमान	-11.0393
▁सोन	-11.0393
रेल	-11.0394
▁शूद्रक	-11.0396
▁t	-11.0398
▁एच्	-11.04
▁सुप्त	-11.04
▁St	-11.0402
▁तद्दिन	-11.0403
▁स्रोतः	-11.0405
चर्या	-11.0408
धिकरण	-11.0408
आर	-11.0409
समीप	-11.0411
शताब्द्या	-11.0412
स्तोत्र	-11.0412
त्वमपि	-11.0413
वाला	-11.0413
▁अवसरे	-11.0416
▁हस्तौ	-11.0416
▁संतुलनस्य	-11.0418
स्तन	-11.0418
▁महान	-11.0419
▁जनवरीमास	-11.042
du	-11.0421
ect	-11.0429
ढा	-11.043
भाषाया	-11.0433
िदं	-11.0433
वधान	-11.0435
▁प्रस्थित	-11.0436
▁दैनन्दिनजीवने	-11.0436
▁दबाव	-11.0437
गन	-11.0437
लुक	-11.0437
पद्धतेः	-11.0438
▁राष्ट्रपतेः	-11.0438
▁स्थगित	-11.0438
▁गुरुगोविन्दसिंह	-11.044
नुष्ठान	-11.0442
▁कृष्णपक्षस्य	-11.0442
▁पोषयति	-11.0442
▁शिक्षित	-11.0443
स्टे	-11.0443
पर्याय	-11.0443
प्रदा	-11.0444
▁संशोधनम्	-11.0444
▁तत्तद्	-11.0445
▁विद्याधर	-11.0446
राज्ञा	-11.0447
चन्द्रस्य	-11.0449
▁व्यवहारं	-11.045
▁प्रमुखनगरैः	-11.0451
▁पुष्य	-11.0454
▁नोपलभ्यते	-11.0455
धम	-11.0457
प्रेक्ष	-11.0457
पित्त	-11.0458
▁अभेद	-11.0462
▁प्रदूषण	-11.0462
▁जगन्	-11.0463
▁दशरथ	-11.0464
साधनं	-11.0469
▁आई	-11.047
तीनां	-11.0471
ुष	-11.0472
सङ्गत	-11.0473
▁मेल	-11.0473
निर्माणम्	-11.0474
यश	-11.0476
▁घ्राण	-11.0476
ासौ	-11.0476
▁मही	-11.0478
वचनं	-11.0478
ङ्गि	-11.0479
रासीत्	-11.048
जातं	-11.0481
▁विभाजनं	-11.0483
▁अथर्व	-11.0487
▁सेनायाः	-11.0488
भीम	-11.0489
महर्षेः	-11.0491
▁सङ्कलन	-11.0491
▁पुष्ट	-11.0492
गृह्य	-11.0492
▁क्रमः	-11.0492
न्त्र	-11.0492
▁भेदाः	-11.0494
▁सीतायाः	-11.0496
▁छायाचित्र	-11.0496
▁धनुष	-11.0497
तेषां	-11.05
▁पोषणं	-11.0502
▁ब्रि	-11.0504
पङ्क्त	-11.0505
▁लोचन	-11.0505
ाभ्युदय	-11.0508
▁मुक्तं	-11.0509
▁क्षम	-11.051
सचिव	-11.051
▁असमर्थः	-11.051
▁बेङ्गळूरुनगर	-11.051
द्वन्द्व	-11.0511
हर्	-11.0511
भास्कर	-11.0513
▁तमिऴ्	-11.0515
प्रस्ताव	-11.0515
कुम्भ	-11.0515
रञ्जन	-11.0516
▁सहाय	-11.0517
तवान्	-11.0517
तथ्य	-11.0522
धाय	-11.0522
जागरण	-11.0526
▁तत्तत्	-11.0528
pi	-11.0529
भ्रष्ट	-11.053
युव	-11.0531
▁स्वामिनः	-11.0531
Con	-11.0534
▁उपाधि	-11.0534
वर्ज	-11.0537
विभक्ति	-11.0537
▁विस्मृत	-11.0538
नुकूल	-11.0539
▁चिकित्सक	-11.0539
▁विमल	-11.054
▁देवतानां	-11.0541
▁वाणी	-11.0543
राइ	-11.0543
▁दाव	-11.0544
▁साम्यं	-11.0544
त्तर	-11.0545
▁नरायन	-11.0547
▁अविवेक	-11.0548
▁कृपा	-11.0548
▁श्वासः	-11.055
▁३८	-11.0552
स्‍	-11.0552
▁मुक्तिं	-11.0554
▁सम्पाद्य	-11.0554
ाकृति	-11.0554
शीला	-11.0555
▁पद्यानि	-11.0556
▁बाध्य	-11.0556
▁प्रकाशस्य	-11.0557
▁उदाहरणं	-11.0558
▁अपार	-11.0558
▁अधःभाग	-11.0559
▁इलाहाबाद	-11.0559
▁श्रद्धया	-11.056
▁स्थातुं	-11.056
▁मेघदूत	-11.056
▁१९७४	-11.0561
▁वृक्षाः	-11.0561
▁भग	-11.0562
▁आनेतुं	-11.0564
▁रुप	-11.0565
वर्षस्य	-11.0566
भूपाल	-11.0566
▁विद्यमानानि	-11.0566
▁भानु	-11.0567
▁जीवति	-11.0567
यवन	-11.0568
▁उत्पन्नः	-11.0569
▁बिम्ब	-11.057
मूर्ध	-11.0571
▁जलबन्धः	-11.0571
एम्	-11.0571
आर्य	-11.0571
तटे	-11.0573
▁कर्तृ	-11.0574
▁दातव्य	-11.0576
▁दीपक	-11.0576
▁विभिन्ननगर	-11.0578
▁रोगी	-11.0578
▁किम	-11.0579
सुधा	-11.058
▁तेजो	-11.0581
▁वैयक्तिक	-11.0582
वर्द्ध	-11.0583
मापन	-11.0587
भिधीयते	-11.0587
स्वरूपेण	-11.059
▁प्राणी	-11.0592
▁परिवर्तनम्	-11.0594
▁छन्दस	-11.0594
▁एकीकृत	-11.0594
नेता	-11.0594
▁राजानं	-11.0595
ष्क	-11.0597
जिन	-11.0598
▁आत्मनो	-11.0598
▁प्रेक्षक	-11.0599
ug	-11.06
▁17	-11.06
▁उन्	-11.06
▁आरामं	-11.0601
▁कुर्वाण	-11.0605
श्रद्ध	-11.0606
▁प्रत्यक्षतया	-11.0606
▁हरे	-11.0607
प्रक्रियायां	-11.0608
▁नामकरणम्	-11.0609
24	-11.061
▁सम्यग	-11.061
क्षेत्राणां	-11.0612
ाभ्य	-11.0614
▁एको	-11.0614
कुच	-11.0615
sion	-11.0616
▁निराश	-11.0617
▁लोभ	-11.0618
▁प्ले	-11.0619
▁बस	-11.062
▁रास	-11.0621
▁नामके	-11.0622
▁विगत	-11.0625
विन्	-11.0625
▁द्वाभ्या	-11.0625
▁प्रातिपदिक	-11.0625
िन्द्रिय	-11.0628
▁मत्त	-11.0628
▁निरूपणं	-11.0628
सन्दर्भे	-11.0631
▁प्रहार	-11.0631
▁भगतसिंहः	-11.0631
▁स्पृश	-11.0636
मुद्राणां	-11.0637
क्रियाकलाप	-11.0639
परिवहन	-11.0639
▁गवा	-11.064
▁हार्	-11.064
act	-11.0642
▁उपस्थितः	-11.0643
qu	-11.0644
▁कारागृह	-11.0645
दाहरण	-11.0646
▁रचिता	-11.0646
न्दी	-11.0646
स्थलानि	-11.0647
▁स्वय	-11.065
क्षोभ	-11.065
▁विद	-11.0653
प्रज्ञा	-11.0657
मुक्तं	-11.0657
23	-11.0658
▁Vi	-11.0659
पल्ली	-11.0664
मुनिना	-11.0666
▁पाश	-11.0667
▁इमां	-11.0669
if	-11.067
ध्	-11.067
ष्टादश	-11.067
रण्य	-11.067
▁माह	-11.0672
महल	-11.0675
▁षष्ठी	-11.0678
▁प्रोत्साह	-11.0678
▁जिज्ञासा	-11.0678
▁अपूर्ण	-11.0679
परिमितं	-11.0679
साहाय्य	-11.0679
सम्मान	-11.068
▁वराह	-11.0682
▁कमपि	-11.0683
▁पाणिनिः	-11.0683
▁उत्तरदायी	-11.0684
▁मध्याह्न	-11.0684
▁वार्षिकीदान	-11.0684
▁उज्जयिन्या	-11.0685
▁भवभूति	-11.0685
▁भवेदिति	-11.0686
▁ईसाई	-11.0686
दर्भ	-11.0686
▁पद्मश्री	-11.0686
▁कौरव	-11.0686
प्रजा	-11.0687
▁उत्तरदायित्व	-11.0687
चारिण	-11.0687
▁ओडिया	-11.0688
▁प्रतिपादयन्ति	-11.0688
▁निधाय	-11.0688
▁२०२१	-11.0689
▁संदर्भ	-11.0689
▁नागालैण्ड	-11.0689
▁भूगोल	-11.069
सेनया	-11.0691
▁उत्पादयति	-11.0691
mon	-11.0692
न्दु	-11.0694
गेरे	-11.0694
शीति	-11.0695
▁उक्तवती	-11.0695
नामधेय	-11.0696
▁बार	-11.0697
मनः	-11.0697
वर्मन्	-11.0697
यज्ञः	-11.0699
दृष्टिः	-11.0699
▁सम्मानितः	-11.07
▁ज्येष्ठः	-11.07
▁दृष्टिः	-11.0701
▁World	-11.0701
सङ्क्रमण	-11.0701
▁आयुर्वेदे	-11.0701
30	-11.0703
▁विधेयक	-11.0703
▁राघव	-11.0704
सृष्टि	-11.0705
ात्मज	-11.0708
तडागः	-11.0708
▁सुल्तान	-11.0709
ोत्कर्ष	-11.0711
▁तमिल	-11.0712
▁जनयितुं	-11.0713
ापन	-11.0714
▁ऎ	-11.0716
▁इत्यादिकं	-11.0717
काव्यस्य	-11.072
होम	-11.0721
▁कल्पनाप्रतिमा	-11.0722
▁शारीरिकं	-11.0722
शिर	-11.0723
नक्षत्रम्	-11.0724
दिक्षु	-11.0726
▁कवयः	-11.0726
पर्वतस्य	-11.0728
ेज्	-11.073
मुपलभ्यते	-11.0731
▁प्रभूत	-11.0732
समीक्ष	-11.0735
ाचल	-11.0735
▁सुन्दरम्	-11.0736
ावच्छिन्न	-11.0736
▁नितम्बं	-11.0737
▁पदानि	-11.0738
▁इत्याख्यं	-11.0739
▁निष्कास	-11.074
ब्द	-11.0744
यमेव	-11.0746
▁ब्रह्मण	-11.0747
घ्र	-11.0748
प्रभव	-11.0749
▁निवेद	-11.0749
▁तृतीयं	-11.0751
▁भारतदेशः	-11.0754
▁उत्सवे	-11.0755
▁हिन्दीभाषा	-11.0755
खु	-11.0755
▁आचरणं	-11.0757
राज्ञः	-11.0758
एम	-11.076
गव	-11.0761
▁शबर	-11.0762
समुदायस्य	-11.0762
पत्तनम्	-11.0764
▁मृताः	-11.0766
इतिहास	-11.0766
▁सन्तुष्टः	-11.0767
▁कुर्व	-11.0768
थु	-11.077
▁समुद	-11.077
वर्णाः	-11.0775
▁पराजित	-11.0779
▁समाना	-11.0781
▁आन्तर	-11.0781
▁कारागारे	-11.0782
▁शुक्ति	-11.0784
प्ला	-11.0785
▁दौ	-11.0786
▁कश्चिद	-11.0788
▁सत्यां	-11.0789
नदीतीरे	-11.079
▁मार्गाः	-11.0796
▁चायं	-11.0796
▁आङ्ग्लभाषा	-11.0796
रुध्य	-11.0798
न्यून	-11.0798
वृत्ते	-11.0799
ाभावे	-11.0802
पशु	-11.0802
▁माय	-11.0802
▁स्थापितं	-11.0802
▁commentar	-11.0802
▁विकसिता	-11.0804
mi	-11.0806
▁लिखिताः	-11.0806
स्तम	-11.0806
ैतत्	-11.0807
्येत	-11.0807
ब्रि	-11.0807
गच्छन्	-11.0808
▁प्रभृति	-11.0808
नगरेभ्यः	-11.0809
▁विक्रमसंवत्	-11.081
▁दृश्यं	-11.0811
▁दिलीप	-11.0811
ر	-11.0811
જ	-11.0811
ಕ	-11.0811
▁प्रतीयमान	-11.0811
▁चिह्न	-11.0811
वगाह	-11.0812
▁सस्यशास्त्रीय	-11.0812
▁१९६९	-11.0813
ालोक	-11.0813
संसार	-11.0813
▁उदात्त	-11.0814
द्रोह	-11.0815
▁किन्त्व	-11.0816
▁मोदी	-11.0816
▁भाति	-11.0818
विजेता	-11.0818
साहेब	-11.0819
▁हुसैन	-11.0819
▁उपस्थितिः	-11.082
इल	-11.0821
▁मुम्बयी	-11.0823
नरेश	-11.0823
भूमेः	-11.0824
▁जेम्स्	-11.0828
▁नु	-11.083
▁आक्षेप	-11.083
▁काव्यप्रकाश	-11.0831
▁निष्क्रिय	-11.0831
समूहस्य	-11.0832
▁पवित्रं	-11.0833
▁अनिल	-11.0834
▁Indian	-11.0837
▁स्वतन्त्रतायाः	-11.0838
▁अन्धकार	-11.0839
land	-11.084
▁वैशेषिक	-11.0841
जीवित	-11.0842
▁श्रीरङ्ग	-11.0843
▁अखिल	-11.0844
र्ब	-11.0845
▁निजाम	-11.0848
▁कुपित	-11.0851
ुष्य	-11.0853
ore	-11.0853
प्रवचन	-11.0853
प्रकाराः	-11.0854
▁भारतसर्वकारस्य	-11.0854
साम्राज्यम्	-11.0855
▁कुर	-11.0856
विक्रमादित्य	-11.0856
टिक्	-11.0856
▁संस्कृतभाषा	-11.0856
▁देहे	-11.0857
ोत्पन्न	-11.0858
▁गङ्गायाः	-11.0863
▁अनुग्रह	-11.0866
▁सारस्वत	-11.0866
ग्रीव	-11.0867
▁मैथिली	-11.0868
▁वानर	-11.0868
देशीयः	-11.0869
▁ध्याय	-11.0869
▁६४	-11.0869
▁पाठशाला	-11.0869
सम्प्रदायः	-11.087
▁प्रशासनम्	-11.0871
ब्रह्मण	-11.0871
साधक	-11.0873
▁स्थापयन्ति	-11.0873
ुच्च	-11.0873
शिक्षणं	-11.0874
▁महान्त	-11.0874
ापयत्	-11.0876
श्वेत	-11.0876
स्नायुषु	-11.0877
▁यान्ति	-11.0878
ated	-11.0881
▁शून्यस्य	-11.0881
ोत्पादक	-11.0882
स्वामिन	-11.0883
▁देशभक्त	-11.0884
ेनाऽपि	-11.0885
ापेक्ष	-11.0885
तनय	-11.0885
▁रचितानि	-11.0887
▁पाकिस्थानस्य	-11.0888
▁शिष्याः	-11.0889
द्रा	-11.089
विधेः	-11.0891
औ	-11.0895
यिष्यति	-11.0897
वृत्तीनां	-11.0897
त्ता	-11.0899
nd	-11.0901
pro	-11.0902
ोदित	-11.0903
▁सविकल्पक	-11.0905
वक्रता	-11.0908
संयम	-11.0912
ियम	-11.0914
आख्य	-11.0915
▁श्रीशङ्कर	-11.0916
▁वीक्षणीयस्थल	-11.0916
▁अञ्चल	-11.0916
नपि	-11.0917
वधौ	-11.0918
▁प्राप्ति	-11.092
▁क्रियाः	-11.092
ेऽप्य	-11.0921
▁उदरं	-11.0923
▁गण्ड	-11.0923
रानी	-11.0924
▁प्रयत्नः	-11.0925
▁स्थापिताः	-11.0926
▁विद्वत्	-11.0926
▁दशमे	-11.0926
▁प्रमा	-11.0927
▁त्रिकोण	-11.0929
त्वमिति	-11.093
स्नायु	-11.0932
महाराष्ट्र	-11.0934
▁विस्तर	-11.0937
▁४२	-11.0938
ऴ	-11.0939
▁original	-11.0939
▁website	-11.0939
▁मल्लिनाथ	-11.0939
▁हृदि	-11.0939
▁प्रार्थय	-11.094
▁क्षेमेन्द्र	-11.094
▁अनुपम	-11.094
▁पश्चिमघट्ट	-11.0941
▁१९८४	-11.0941
▁सुचारु	-11.0941
▁शक्तिपीठ	-11.0942
▁चण्डीगढ	-11.0942
भट्टाचार्य	-11.0942
▁पिङ्गल	-11.0943
▁स्मर्यते	-11.0943
▁आजीवनं	-11.0943
▁ऐक्य	-11.0943
साइ	-11.0945
सुत	-11.0946
▁इत्यादिना	-11.0947
▁अतस्त	-11.0947
▁सम्भाव्यते	-11.0947
▁राजीव	-11.0949
ग्रन्थं	-11.0952
स्थितिं	-11.0952
▁उकारः	-11.0955
▁प्रकृष्ट	-11.0956
▁मन्त्रिण	-11.0956
▁संशयः	-11.0961
वदमन	-11.0962
▁सामञ्जस्यं	-11.0963
ैषा	-11.0964
▁प्रकोष्ठ	-11.0965
▁मृत्	-11.0965
र्नाम	-11.0967
निष्ट	-11.0969
der	-11.0969
▁अभियान	-11.097
▁कोष	-11.0971
▁म्लेच्छ	-11.0972
▁द्यूत	-11.0972
न्वित	-11.0975
▁विधा	-11.0975
▁करणीय	-11.0975
रॉ	-11.0983
gu	-11.0984
▁स्पर्धाया	-11.0985
बॉ	-11.0988
▁उद्देशः	-11.0989
▁यशः	-11.099
▁ताम्	-11.0991
थ्य	-11.0992
ान्तरेण	-11.0993
▁नियोज	-11.0994
▁योगसूत्र	-11.0994
▁दारु	-11.0999
कवच	-11.1
समारोह	-11.1001
▁भ्रान्ति	-11.1001
रूढ	-11.1003
मर्यादा	-11.1003
▁हेतोः	-11.1004
▁माला	-11.1005
▁स्रोत	-11.1005
वसर	-11.1005
▁क्षिप्त	-11.1006
▁हस्ति	-11.1008
पात्रं	-11.101
▁संस्कृतशब्द	-11.1012
कपाट	-11.1013
यामेव	-11.1013
▁सत्र	-11.1014
▁क्रे	-11.1015
▁व्याध	-11.1015
▁Maha	-11.1016
विशेषज्ञ	-11.1016
▁चलनचित्र	-11.1017
रित	-11.1017
ानुराग	-11.1017
▁शब्दानुशासन	-11.1019
▁तापमानं	-11.1019
▁स्वगृह	-11.102
▁शिक्षकः	-11.1022
▁दैर्घ्य	-11.1024
वाच्य	-11.1026
गन्तव्य	-11.1027
प्रार्थना	-11.1029
▁दीर्घतम	-11.1029
▁कल्पन	-11.1029
▁धनस्य	-11.1029
व्यापक	-11.103
▁पत्रं	-11.1031
ऽप्य	-11.1035
▁रामनाथ	-11.1035
मिन	-11.1038
▁रक्षणार्थं	-11.1038
संस्थया	-11.1038
ार्च	-11.1039
▁वृत्तं	-11.1042
बुध	-11.1042
▁अनुज	-11.1043
▁गुणा	-11.1044
▁व्युत्पत्तिः	-11.1044
रमणीय	-11.1045
ालम्बन	-11.1045
ह्म	-11.1047
▁प्रार्थ	-11.1048
▁सहजतय	-11.105
न्धर	-11.1051
2)	-11.1057
▁परिवारः	-11.1058
▁कार्येषु	-11.1059
वर्णित	-11.106
तमस्य	-11.1061
पत्रिकायां	-11.1063
▁गोण्ड	-11.1066
▁उपकला	-11.1066
यात्रायां	-11.1068
▁बृहत्तमं	-11.1069
▁प्रैषयत्	-11.1069
अकादमी	-11.1069
▁अग्नाशय	-11.1069
▁तात्कालिक	-11.1069
▁शिशोः	-11.1069
▁१९८७	-11.1071
किन्	-11.1072
▁स्थापयतु	-11.1072
▁शक्नु	-11.1073
जलप्रपातः	-11.1073
▁रक्ते	-11.1075
▁आङ्ग्लभाषया	-11.1077
▁निर्मितवन्तः	-11.1077
मध्व	-11.1078
▁भक्तिः	-11.1078
▁रिक्त	-11.1079
शुल्व	-11.1083
▁स्वाध्याय	-11.1083
रुद्ध	-11.1083
▁रामानुजभाष्य	-11.1084
▁भवन्तु	-11.1085
▁सम्मुखे	-11.1089
▁मेघालय	-11.1089
▁सन्तुष्ट	-11.109
▁स्वर्गलोक	-11.1091
▁शास्त्रं	-11.1092
▁अधिकृत	-11.1093
द्वारेण	-11.1097
▁बोर	-11.1098
▁संस्थाः	-11.1099
गान्धि	-11.1101
ach	-11.1101
▁रामायणस्य	-11.1101
▁अवशेषाः	-11.1104
विविध	-11.1106
पतयः	-11.111
▁कृष्णयजुर्वेद	-11.1112
▁तद्वि	-11.1112
50	-11.1117
Pa	-11.1117
प्राप्त्यर्थं	-11.1118
▁मान्य	-11.1118
▁लज्जा	-11.1119
ासन्	-11.1122
▁विवाहस्य	-11.1123
▁महोदयेन	-11.1125
▁गोत्र	-11.1125
दष्ट	-11.1126
▁लव	-11.1127
िङ्ग	-11.1132
रश्मि	-11.1132
▁असामान्य	-11.1133
▁स्थलेषु	-11.1138
▁मेधा	-11.1138
▁शास्त्रस्य	-11.1139
शालिन	-11.114
दैवज्ञ	-11.1141
▁नैयायिक	-11.1141
▁वार्तिक	-11.1145
रूपो	-11.1145
▁पञ्जाबराज्य	-11.1146
मलङ्कार	-11.1147
▁१९७०	-11.1148
स्फुट	-11.1149
▁केन्द्रसर्वकार	-11.115
▁वंशज	-11.1151
प्रपात	-11.1151
संबन्ध	-11.1152
▁उडुपी	-11.1155
सङ्ग्रहालय	-11.1155
▁वलय	-11.1155
▁शब्दा	-11.1156
ran	-11.1156
▁प्रथा	-11.1158
▁ओङ्कार	-11.116
▁अमूल्य	-11.1162
The	-11.1162
▁प्रसारण	-11.1167
▁अध्ययने	-11.1168
रुच	-11.1168
रसिक	-11.1168
संन्यास	-11.1169
26	-11.1174
▁प्रतिपादनं	-11.1175
काण्डम्	-11.1177
पार्	-11.1177
भाषिण	-11.1178
▁इदानी	-11.1179
▁बोधन	-11.1181
ाष्टम	-11.1182
संकट	-11.1186
▁प्रयुक्तः	-11.1187
पर्वण	-11.1188
अल्	-11.1189
25	-11.119
▁कल्पनाया	-11.1191
▁विधानं	-11.1191
▁दर्पण	-11.1191
▁श्रीलङ्का	-11.1191
▁मैसूर	-11.1192
▁कल्पसूत्र	-11.1194
▁ग्रन्थालय	-11.1194
दधाति	-11.1196
साधनम्	-11.12
▁रोगः	-11.12
>	-11.1201
▁बाङ्ग्लादेश	-11.1201
▁आख्यायिका	-11.1201
▁पौरवकुल	-11.1201
ायुर्वेद	-11.1201
▁दैत्य	-11.1201
▁अकृत्वा	-11.1201
▁नकारात्मक	-11.1201
▁आंग्ल	-11.1201
▁व्यपदिश्यते	-11.1202
कुण्डल	-11.1202
▁१९८६	-11.1202
hu	-11.1202
▁आरब्धवन्तः	-11.1203
▁पार्टी	-11.1203
तवैक्रमाब्दमभितः	-11.1205
ज्वाल	-11.1207
▁सूर्योदय	-11.1209
▁ब्रिटिष्	-11.1209
▁उपनयन	-11.1209
▁कवेर	-11.1209
▁कंस	-11.121
▁जन्मनि	-11.1211
स्मृतिः	-11.1211
▁अधिकाधिक	-11.1212
▁सूर्यसिद्धान्त	-11.1213
▁प्रभाकर	-11.1214
सत्र	-11.1214
छा	-11.1215
▁कारयति	-11.1215
▁होरा	-11.1215
भक्तिः	-11.1218
▁पञ्चमी	-11.1218
▁पृष्टवान्	-11.1218
▁प्रवह	-11.1219
▁स्थापय	-11.1219
वर्णनम्	-11.122
▁स्थग	-11.1223
हुत	-11.1223
▁पित्रा	-11.1224
▁करुण	-11.1225
▁भर्तृहरि	-11.1227
▁स्नायु	-11.1228
कारणतः	-11.1231
▁सघन	-11.1236
ास्पद	-11.1238
भ्रात	-11.1238
Ma	-11.1239
वृक्षाः	-11.1239
▁शास्त्रार्थ	-11.1241
वेध	-11.1242
▁विर	-11.1244
गोर	-11.1244
▁वातावरणम्	-11.1245
क्षत्र	-11.1246
▁आयुर्वेदः	-11.1247
▁अन्याः	-11.1247
नामकेन	-11.1248
▁अङ्गानि	-11.1248
▁खड्ग	-11.1248
वरण	-11.1249
व्यवस्थायां	-11.1251
▁चर्च	-11.1252
▁उद्युक्त	-11.1255
शङ्क	-11.1257
▁चैतन्यस्य	-11.1259
वाञ्छ	-11.126
▁सूत्रं	-11.1262
ात्मन	-11.1263
▁१९७१	-11.1263
यद्	-11.1263
▁यज्	-11.1265
भीत	-11.1267
वर्म	-11.1268
ागमः	-11.1271
▁कल्याणं	-11.1272
▁5	-11.1273
▁विकासाय	-11.1274
कम्प	-11.1275
▁तपस्या	-11.1277
▁सुब्रह्मण्य	-11.1279
▁पादप	-11.128
▁तच्छ	-11.1282
▁कथितम्	-11.1283
▁यश्च	-11.1285
ल्ट	-11.1286
▁उपस्थिताः	-11.1288
वैशिष्ट्य	-11.1292
▁मरणम्	-11.1292
प्रतिपादित	-11.1294
श्चित्	-11.1296
पल्लव	-11.1296
जोखिम	-11.1296
ie	-11.1296
मुहूर्त	-11.1296
कल्पनाप्रतिमा	-11.1296
र्ट्	-11.1297
कृष	-11.1298
▁याति	-11.1299
प्रमेय	-11.1299
▁यथोक्तं	-11.1301
▁उद्याने	-11.1302
नुप्रास	-11.1304
ome	-11.1304
नेह	-11.1305
▁अभिमान	-11.1307
▁मधुरै	-11.1308
सङ्गति	-11.1313
▁पुस्तकम्	-11.1313
पोषण	-11.1315
प्रस्थ	-11.1315
▁गुरू	-11.1317
▁गणस्य	-11.1318
▁चतुर्विंशति	-11.132
नामानि	-11.132
tu	-11.1321
▁हिन्दुधर्मस्य	-11.1321
ण्डु	-11.1322
▁श्राव	-11.1323
▁युक्ता	-11.1324
▁रचन	-11.1324
सिन्धु	-11.1326
वर्मणः	-11.133
प्या	-11.1332
▁आच्छादित	-11.1334
▁तिरुवनन्तपुर	-11.1334
▁नेहरू	-11.1334
ुभय	-11.1334
▁जम्मूकाश्मीर	-11.1334
▁पतञ्जले	-11.1335
ौचित्य	-11.1335
▁उत्सर्जन	-11.1335
प्रसूत	-11.1335
▁पक्षिणः	-11.1335
▁शृणु	-11.1335
▁१९३६	-11.1336
▁अन्तर्जाल	-11.1336
संस्थायां	-11.1337
▁आगामि	-11.1337
▁विलोक्य	-11.1339
ज्ज्वल	-11.134
संशय	-11.1342
▁दधि	-11.1344
▁महाराजः	-11.1346
▁सक्रियः	-11.1347
▁विश्वस्मिन्	-11.1347
शतकम्	-11.1349
▁अफ	-11.1349
क्रियया	-11.135
प्रभु	-11.1354
सेनस्य	-11.1357
▁नाटकम्	-11.1359
पालक	-11.136
ूह	-11.1362
▁हार	-11.1363
नुगुणं	-11.1365
▁कन्नडभाषा	-11.1367
ास्थि	-11.1367
▁विशालः	-11.1367
▁मार्चमास	-11.1367
▁उच्छ	-11.1368
विषयीभूत	-11.1368
▁समुद्रतट	-11.1369
वेदन	-11.1369
घटनानां	-11.1375
▁अनुभवः	-11.1377
दानीं	-11.1379
▁पापं	-11.138
▁आत्मना	-11.138
▁वेदव्यास	-11.138
▁त्रिंशत्	-11.138
▁दिनं	-11.1381
▁रघुवंश	-11.1382
▁धनुर्	-11.1385
▁कौशिक	-11.1387
▁वह्नि	-11.1387
मिशन	-11.1388
▁समीपम्	-11.1388
कर्त्ता	-11.1389
निरूपणम्	-11.139
क्षत	-11.1391
राजेन	-11.1392
▁अप्	-11.1394
केन्द्रस्य	-11.1396
त्वेऽपि	-11.1398
रोगेण	-11.1399
▁अहमद	-11.1401
do	-11.1401
दर्शिन	-11.1401
▁वक्षःस्थल	-11.1401
र्भ	-11.1402
▁इन्द्राः	-11.1402
वत्या	-11.1403
लाव	-11.1403
▁वस्तुतो	-11.1409
▁वास्तुकला	-11.1409
▁परिवर्त्य	-11.141
▁प्रशिक्षण	-11.1412
नुप	-11.1413
▁असमर्थ	-11.1413
तत्त्वानां	-11.1413
ाधिपति	-11.1413
▁प्रभावेण	-11.1415
▁परिमाणं	-11.1416
▁गोदावरी	-11.1416
गुणानां	-11.1416
▁अदृश्य	-11.1418
मनेक	-11.142
▁प्रतियोगिता	-11.142
विशेषस्य	-11.142
▁फो	-11.142
पास	-11.1423
28	-11.1426
▁पाठक	-11.1426
▁सुप्रसिद्धः	-11.1426
जागरूकता	-11.1426
भगवद्गीता	-11.1428
ङ्कार	-11.1432
सङ्केत	-11.1432
प्रामाण्य	-11.1433
ोपनिषद	-11.1433
▁स्तरः	-11.1433
वैयाकरण	-11.1433
▁दत्तः	-11.1434
▁१०८	-11.1434
▁is	-11.1435
मराठी	-11.1435
.......	-11.1437
वक्त्र	-11.1439
▁दर्शनार्थं	-11.144
▁यथोक्तम्	-11.1441
▁गायन	-11.1441
our	-11.1442
ीक्रियते	-11.1443
सदृशः	-11.1444
▁प्रबोध	-11.1445
एल्	-11.1447
▁विकस	-11.1448
▁मद्रास	-11.1449
▁सिद्धान्ताः	-11.145
कीर्त	-11.1451
▁मृगया	-11.1453
▁जनसङ्ख्यायाः	-11.1456
सुविधा	-11.1459
त्राण	-11.1462
▁काव्यशास्त्र	-11.1463
▁बृह	-11.1463
▁मर्म	-11.1464
▁भीमा	-11.1464
परम्परया	-11.1464
{	-11.1469
National	-11.1469
▁नेहरु	-11.1469
▁सपादलक्ष	-11.1469
▁सुतरां	-11.1469
▁चतस्र	-11.1469
▁समर्प्य	-11.147
ुत्तेजक	-11.147
स्फूर्त	-11.147
शिष्ट	-11.147
▁अशक्य	-11.147
▁१९८२	-11.147
ग्ने	-11.1471
▁१९७७	-11.1471
▁प्रयतन्ते	-11.1471
▁करिष्यामि	-11.1472
वरेण	-11.1474
▁Le	-11.1476
▁निर्भर	-11.1477
▁कस्मात्	-11.1477
▁गौरवं	-11.1478
▁प्रकटयति	-11.148
▁अग्निहोत्र	-11.148
▁निवारित	-11.148
▁एतेषाम्	-11.1481
▁६५	-11.1482
▁उद्घाट्य	-11.1482
▁महेश	-11.1483
नद्योः	-11.1484
▁हत्वा	-11.1485
समितिः	-11.1485
▁ज़	-11.1488
▁विधवा	-11.149
▁सुदृढ	-11.1491
▁संरक्षणं	-11.1492
जनान्	-11.1494
ाष्टक	-11.1496
▁लक्ष्यम्	-11.1497
▁स्त्रिया	-11.1498
▁रक्तस्य	-11.15
▁प्रसन्ना	-11.1501
▁सम्पूर्णतया	-11.1502
बह	-11.1502
सन्ध	-11.1505
▁मस्तिष्कं	-11.1509
▁ब्रह्मणा	-11.1511
्यैव	-11.1511
▁शास	-11.1511
▁एल	-11.1512
▁७२	-11.1514
▁स्तुत	-11.1516
▁जापान	-11.1517
ज़्	-11.1517
▁वात्स्यायन	-11.152
▁जागरण	-11.1521
▁तद्विषये	-11.1525
▁विनायक	-11.1526
तमवर्षे	-11.1527
▁रावणस्य	-11.1528
ासनम्	-11.1529
▁उन्न	-11.1529
मलै	-11.153
▁प्रतीति	-11.153
▁भगतसिंह	-11.153
▁ऋच	-11.1531
▁वितर	-11.1532
▁अनुभवं	-11.1535
णोः	-11.1538
▁एकाग्रता	-11.1538
रिस्	-11.1539
▁सन्न्यास	-11.154
▁आश्रित	-11.1541
▁शिवराम	-11.1542
▁विचारधारा	-11.1543
▁मानवाः	-11.1544
▁विरह	-11.1544
▁दीर्घः	-11.1545
वित्तीय	-11.1546
▁बोधः	-11.1546
▁यदु	-11.1547
लेश	-11.1547
▁मोक्षं	-11.1551
भवन्	-11.1552
स्वीकरण	-11.1552
▁४००	-11.1554
दक्ष	-11.1554
▁बाहुल्य	-11.1555
▁जन्मदिन	-11.1556
27	-11.1556
ाक्षराणि	-11.1558
विहित	-11.1558
▁क्रिस्त	-11.1561
▁शक्या	-11.1562
वक्त	-11.1564
मिन्	-11.1566
महल्	-11.1567
ाभिप्राय	-11.1567
यामपि	-11.1568
▁त्यागराज	-11.157
▁बैंक	-11.157
स्ती	-11.1571
प्रातिशाख्य	-11.1572
वासुदेव	-11.1572
▁दशरथः	-11.1575
▁विकि	-11.1575
प्रदूषण	-11.1577
▁अजय	-11.1581
चतुर्दश	-11.1582
क्लेश	-11.1583
▁Mo	-11.1584
आधारित	-11.1586
▁परियोजना	-11.1587
वत्यः	-11.159
▁प्रस	-11.159
नाटके	-11.159
▁मासः	-11.1591
▁मैत्री	-11.1591
▁देश्	-11.1595
▁रचितः	-11.1596
▁उत्तरप्रदेशस्य	-11.1597
रावः	-11.1597
▁अप्य	-11.1598
व्यञ्जक	-11.16
▁कालेन	-11.1602
▁स्वीये	-11.1602
▁रूपान्तर	-11.1604
परिस्थिति	-11.1604
▁)]	-11.1606
▁पारमार्थिक	-11.1606
▁संवर्धयितुं	-11.1606
▁word	-11.1606
▁शैक्षणिकसंस्थाः	-11.1606
कृतौ	-11.1607
ेतिहासः	-11.1608
ुल्लेख	-11.1608
▁अक्बर	-11.1608
▁दातुम्	-11.1609
सङ्गठन	-11.1609
▁8.	-11.1609
ादीनाम	-11.161
▁जैमिनि	-11.161
▁प्रौद्योगिकी	-11.1616
▁महत्वपूर्णं	-11.1616
▁तैत्तिरीयसंहिता	-11.1617
▁अविनाशि	-11.1618
▁विज्ञायते	-11.1618
▁अङ्गीकृतवान्	-11.1619
▁दत्तवती	-11.162
बेन	-11.162
▁अनादि	-11.162
स्थानात्	-11.162
▁यात्र	-11.1621
▁श्रेय	-11.1621
▁उदाहरणार्थं	-11.1622
डोल	-11.1623
▁असीत्	-11.1624
▁सञ्जातम्	-11.1625
▁बहव	-11.1627
▁सजीव	-11.1628
▁परिष्कृत	-11.1632
कण्ड	-11.1632
्येते	-11.1632
मेल	-11.1633
▁आरोहण	-11.1634
गुल्म	-11.1638
▁विपक्ष	-11.1639
वसा	-11.1639
ावकाश	-11.1639
दित्य	-11.1641
▁प्रशासनं	-11.1642
▁प्रतिचरण	-11.1642
▁भङ्ग	-11.1643
▁पदम्	-11.1644
▁चतुः	-11.1645
▁तमेव	-11.1645
प्रतीति	-11.1646
▁ब्रह्मणि	-11.1648
▁Ka	-11.1648
▁सदाचार	-11.1652
▁लल्ल	-11.1654
रिष्ट	-11.1655
16	-11.1655
▁५५	-11.1656
प्रेम्ण	-11.1657
बाधित	-11.1658
नाशक	-11.1658
▁वैद्यकीय	-11.1659
हत्या	-11.1661
▁केरळ	-11.1663
ानन	-11.1663
▁कर्मकर	-11.1664
सेवन	-11.1665
▁इतिहासस्य	-11.1665
▁विच्छेद	-11.1666
▁पाण्डवानां	-11.1667
श्रु	-11.1668
विस्तर	-11.1668
▁संवृत्त	-11.1669
▁आफ्रिका	-11.1671
शिल	-11.1671
साम्य	-11.1672
▁शिरो	-11.1674
रन्ति	-11.1677
▁हन्त	-11.1679
ʊ	-11.168
▁सिद्धार्थ	-11.1682
▁निष्कासित	-11.1682
▁निरुक्तस्य	-11.1683
▁कप	-11.1684
▁स्वयंवर	-11.1686
▁यथोक्त	-11.1686
बायी	-11.1687
द्रव्याणि	-11.1687
▁योगिनः	-11.1688
रक्षित	-11.1688
hy	-11.1688
नागर	-11.169
दिव	-11.169
▁जू	-11.1694
▁तपसा	-11.1695
वृष्टि	-11.1695
▁सम्मोहन	-11.1697
▁बहुश	-11.1698
▁हैं	-11.1699
ल्स	-11.17
▁It	-11.17
▁उच्चैः	-11.1704
▁Ju	-11.1706
विस्तृत	-11.1706
वज्र	-11.1706
▁मनोविज्ञाने	-11.1708
नैतिक	-11.1709
विनोद	-11.171
▁भण्डार	-11.171
▁कार्यरत	-11.171
पाकिस्थान	-11.1713
▁वर्	-11.1713
▁अध्यायाः	-11.1715
वर्जित	-11.1715
द्वीपस्य	-11.1715
अन्त	-11.1715
▁संसदः	-11.1715
▁बाह	-11.1716
मधिक	-11.1716
▁दूरस्थ	-11.1717
राज्येषु	-11.1718
समकालिक	-11.1719
हिल्स्	-11.1719
आय	-11.1719
भिधान	-11.172
राणी	-11.1722
▁अपमान	-11.1722
पक्षीय	-11.1723
सप्तम	-11.1724
▁महाराष्ट्रे	-11.1725
▁ज्ञानविज्ञान	-11.1725
▁सेवक	-11.1725
बुद्ध्या	-11.1726
ाध्यक्षः	-11.1726
▁तज्	-11.1726
सादृश्य	-11.1727
▁अमु	-11.1728
▁अमी	-11.173
▁धावक	-11.1732
स्वपि	-11.1733
▁विशिष्य	-11.1733
▁एतेभ्यः	-11.1734
▁पश्चिमभागे	-11.1736
कुश	-11.1736
tal	-11.1738
१००	-11.1738
▁उपाधिं	-11.1741
मांस	-11.1742
▁वंशस्य	-11.1744
वार्षिकवृष्टिपात	-11.1745
▁Science	-11.1745
▁चातुर्मास्य	-11.1745
मावास्या	-11.1745
▁उन्मत्त	-11.1745
▁भयङ्कर	-11.1746
▁शक्तिशाली	-11.1746
▁१९६६	-11.1747
▁१९६७	-11.1747
▁योजयितुं	-11.1748
मापन्न	-11.1749
ाकाङ्क्ष	-11.1749
▁अनुभवितुं	-11.1751
natha	-11.1752
▁लाभप्रद	-11.1752
▁संगृहीत	-11.1753
▁गुच्छ	-11.1753
▁शमयति	-11.1753
▁यच्छन्ति	-11.1753
न्तीति	-11.1753
▁पाताल	-11.1754
▁नार	-11.1756
एँ	-11.1757
भरण	-11.1759
विसर्जन	-11.1759
क्रयण	-11.176
▁जित्वा	-11.176
▁यैः	-11.176
लक्ष्म	-11.176
शिक्ष	-11.1761
फलानि	-11.1762
▁नासिक	-11.1762
▁क्रान्तिकारि	-11.1765
▁इमा	-11.1765
▁समुद्रतल	-11.177
वत्स	-11.1771
▁अभिनवगुप्त	-11.1771
द्रष्ट	-11.1772
▁भगवान	-11.1773
ाऽलङ्कार	-11.1773
ललित	-11.1773
▁स्वयम	-11.1774
▁संयोगः	-11.1775
श्रेणी	-11.1775
▁समर्पय	-11.1777
राण	-11.1777
▁पञ्चाङ्ग	-11.1778
▁कर्मयोगः	-11.1778
अन्य	-11.1784
ाभवत्	-11.1784
वादिनां	-11.1784
▁मस्तुलुङ्ग	-11.1785
▁द्विविधा	-11.1786
▁कथनेन	-11.1788
व्यसन	-11.1789
▁भिन्नता	-11.179
ऊर्जायाः	-11.1793
ेऽङ्के	-11.1793
▁ठ	-11.1793
तप्त	-11.1794
विशाल	-11.1796
ीकृताः	-11.1797
ात्पूर्व	-11.1797
▁६२	-11.1798
ian	-11.1798
निगम	-11.1801
▁शङ्क	-11.1801
ज्ञानेन	-11.1805
ॉर्	-11.1806
परिस्थितौ	-11.1808
▁Ar	-11.1809
मीटर्	-11.1811
▁प्रदर्शितम्	-11.1811
▁सक्रियं	-11.1812
▁सावरकर	-11.1813
र्जि	-11.1813
▁मग्न	-11.1814
▁आलोचना	-11.1815
▁निवासस्थान	-11.1819
तस्त	-11.1826
▁सम्बद्धा	-11.1826
कर्मणः	-11.1827
महादेव	-11.1828
17	-11.1834
स्वरेण	-11.1834
ाहारः	-11.1835
पराध	-11.1835
▁वृष्टि	-11.1838
▁साम्प्रतम्	-11.1838
मानाः	-11.184
▁खण्डे	-11.184
जित्	-11.1844
▁अधिकारिणः	-11.1844
▁भासस्य	-11.1846
▁पारस्परिक	-11.1848
शासित	-11.1848
▁क्लिष्ट	-11.1851
ुत्त	-11.1852
्तुं	-11.1854
▁आदिम	-11.1854
गोविन्द	-11.1855
ाराधन	-11.1858
Ad	-11.186
वर्षाणां	-11.186
▁ग्रे	-11.1863
प्रदेशात्	-11.1864
▁अवसरं	-11.1865
पाठक	-11.1866
गुप्तः	-11.1868
▁जगत	-11.1868
लचीलता	-11.187
▁पुरस्काराः	-11.187
मठस्य	-11.1873
जग	-11.1874
▁सिंहः	-11.1878
स्थलस्य	-11.1882
युक्ति	-11.1883
इत्याख्य	-11.1885
भगवत	-11.1885
ಸ	-11.1886
▁क्षुद्र	-11.1886
▁उद्घाटयति	-11.1886
▁वीथिका	-11.1886
▁लौह	-11.1886
मनुसृत्य	-11.1886
▁श्वेताम्बर	-11.1886
▁कतिचन	-11.1886
▁बनारस	-11.1887
▁१९५१	-11.1887
▁चौर	-11.1887
▁मीमांसक	-11.1887
▁१९८५	-11.1888
▁१९९३	-11.1888
▁प्रामुख्य	-11.1888
▁सरदार	-11.1888
▁आहारपद्धतिः	-11.1888
▁राजस्थानराज्ये	-11.1888
▁तदारभ्य	-11.1889
▁त्रिविक्रम	-11.1889
▁अयोग्य	-11.189
▁उपास्थि	-11.189
मार्गाणां	-11.189
▁नाटिका	-11.1891
नेर	-11.1891
रूपाः	-11.1891
▁दृष्टुं	-11.1892
▁सञ्चाल	-11.1893
▁संयोज्य	-11.1895
▁क्रुद्धः	-11.1896
▁काश्या	-11.1897
▁स्याद	-11.1898
मस्जिद्	-11.1898
▁प्रश्नस्य	-11.19
▁मतानुसारं	-11.1902
▁विष्णो	-11.1904
▁g	-11.1905
ार्जन	-11.1905
ऽर्थ	-11.1905
▁भित्त	-11.1906
▁रम्य	-11.1907
▁अवस्थायां	-11.191
गवेषण	-11.191
▁लेपन	-11.1911
मात्रे	-11.1911
▁परित्यक्त	-11.1912
▁पारिवारिक	-11.1914
▁सन्देशं	-11.1916
परिषद	-11.1916
▁आन्	-11.1917
लक्षणानि	-11.1918
ुन्	-11.1919
व्यायाम	-11.192
▁आकाशे	-11.192
प्रशिक्षण	-11.192
ोत्पत्तिः	-11.1921
▁अप्रैल	-11.1922
साधनानि	-11.1923
▁वृष	-11.1924
▁क्षणे	-11.1925
ence	-11.1926
▁विधानसभा	-11.1927
▁मूल्याङ्कन	-11.1927
▁कोङ्कण	-11.193
▁साधनम्	-11.193
ावशेष	-11.193
खेड	-11.1931
▁दर्शनेन	-11.1931
सदृशाः	-11.1932
स्तो	-11.1933
▁रामानुज	-11.1933
▁कानिचित्	-11.1935
▁राज्ञां	-11.1939
▁प्रचुर	-11.1939
शब्दाः	-11.1941
15	-11.1943
▁निर्वचन	-11.1944
▁काञ्चन	-11.1944
▁व्यङ्ग्य	-11.1944
निष	-11.1945
▁काश्यप	-11.1947
ाब्दे	-11.1948
▁बृहद	-11.195
मुखेन	-11.195
▁उत्तरभारते	-11.195
▁काव्यानि	-11.1953
▁पक्व	-11.1953
▁लिख	-11.1954
राशे	-11.1956
▁सज्जन	-11.1958
प्रस्तुत	-11.1959
वर्षेषु	-11.1963
वर्षम्	-11.1964
गणस्य	-11.1965
▁विस्फोट	-11.1965
प्रशस्ति	-11.1965
महाभारत	-11.1965
▁सम्बन्धस्य	-11.1971
घटित	-11.1971
▁देहिन	-11.1972
पालनं	-11.1974
▁आन्दोलने	-11.1974
▁बाहू	-11.1975
▁चेद	-11.1976
▁धैर्यं	-11.1976
घो	-11.1977
संहित	-11.1977
यण	-11.1982
रत्नावली	-11.1984
▁प्राणान्	-11.1984
स्थि	-11.1984
▁स्वराज्य	-11.1984
▁स्वामि	-11.1985
▁जनि	-11.1985
▁उत्तङ्कः	-11.1985
बृहत्	-11.1986
▁राजान	-11.1987
पट्टण	-11.1988
प्रहार	-11.1988
लेस्	-11.1988
▁सत्याग्रह	-11.1988
रिका	-11.199
▁बाधक	-11.199
▁प्रणव	-11.1991
▁जननी	-11.1991
धिष्ठान	-11.1992
तंत्र	-11.1994
परिग्रह	-11.1994
▁प्रचारः	-11.1994
▁पूर्वपक्ष	-11.1994
मेण्ट्	-11.1994
▁बीदर	-11.1995
ितव्यम्	-11.1996
▁कावेरी	-11.1998
नगरतः	-11.1998
प्रकोष्ठ	-11.2
सुल्तान	-11.2
आध्यात्मिक	-11.2001
▁खान्	-11.2002
मतानुसारेण	-11.2002
इन्द्र	-11.2002
▁बद्धः	-11.2004
अन्तरिक्ष	-11.2004
क्रियाया	-11.2006
▁सम्मिलिताः	-11.2009
▁धो	-11.2014
दिव्य	-11.2016
तंत्रिकातन्त्र	-11.2017
दूषण	-11.2018
▁अनुमानं	-11.2018
निर्वचन	-11.2018
मिश्रस्य	-11.2019
क्रीडक	-11.2019
दीनां	-11.202
सर्वेक्षण	-11.202
सम्बद्धा	-11.202
▁संस्कृतभाषायां	-11.202
ोपम	-11.2022
ग्रस्तः	-11.2023
हिन्द	-11.2023
▁समाचारपत्र	-11.2026
▁मानवजीवन	-11.2027
वेल्	-11.2027
▁देवनागरी	-11.2028
दौर्बल्य	-11.2029
व्यतिरेक	-11.2029
હ	-11.2029
▁तिर्यक्	-11.2029
▁आषाढ	-11.2029
▁मुघल	-11.2029
▁पर्वतारोहण	-11.2029
▁पद्मावती	-11.203
▁उज्जयिनी	-11.203
▁आत्मसाक्षात्कार	-11.203
▁१९५७	-11.2031
▁१९८८	-11.2031
▁शाकल्य	-11.2031
▁हिन्दीभाषया	-11.2031
▁वर्तमानकाले	-11.2032
▁कारावास	-11.2032
▁सज्जता	-11.2032
▁नेतृत्वं	-11.2034
▁अव्यय	-11.2034
▁धारयन्तु	-11.2034
▁भ्रातर	-11.2034
▁प्रतिपादितः	-11.2034
ाश्चर्य	-11.2035
▁निमग्न	-11.2036
▁परिवर्तनशील	-11.2036
पट्टिका	-11.2037
▁तदनुसारं	-11.2037
र्जायते	-11.2038
▁Is	-11.2039
▁जागरित	-11.2039
▁बौद्धधर्मस्य	-11.204
▁योगिन	-11.2041
भिमत	-11.2041
▁अतिरिच्य	-11.2041
▁कस्यचिद्	-11.2042
▁ख्याता	-11.2043
▁श्रौतसूत्र	-11.2043
नुसार	-11.2044
ेरन्	-11.2046
सागरे	-11.2046
▁तावद	-11.2046
जिक	-11.2047
वाक्यानि	-11.2048
▁विक्रयणं	-11.2049
▁फ्रान्स्	-11.2049
अष्ट	-11.2049
श्याम	-11.2049
रेलस्थानक	-11.205
्युत्तर	-11.2052
▁मासिक	-11.2052
▁तान्त्रिक	-11.2054
तत्त्वानि	-11.2057
स्तेषां	-11.2059
▁मुख्याः	-11.2059
▁उदयपुर	-11.2059
दिक्	-11.2061
▁कैलास	-11.2063
परिवारस्य	-11.2064
▁विद्युद	-11.2064
▁सुभाषित	-11.2065
पारायण	-11.2065
▁निवेदिता	-11.2066
▁विस्मर	-11.2067
▁गि	-11.2067
bo	-11.2068
▁कटिबन्ध	-11.2069
▁वैशाख	-11.2069
▁मील	-11.2069
▁जितवान्	-11.207
▁कदली	-11.2071
वित्त	-11.2073
पक्षपात	-11.2077
कारकः	-11.2078
▁मनोविश्लेषण	-11.208
▁चेष्टा	-11.2082
नास	-11.2082
चार्य	-11.2083
▁पाञ्चाल	-11.2084
▁छन्द	-11.2088
▁आयाति	-11.2094
गन्	-11.2096
ाश्रयः	-11.2097
साहाय्येन	-11.2099
गणपति	-11.21
▁निर्दिष्टम्	-11.2102
▁बहुमत	-11.2102
मुपरि	-11.2104
▁अञ्ज	-11.2104
▁प्रयोगाः	-11.2106
▁बन	-11.2106
पुर्	-11.2108
▁प्रभाविता	-11.2108
▁मिथ्यात्व	-11.2109
डर्	-11.211
ग्रहणम्	-11.2113
▁आवास	-11.2115
ाध्यायाः	-11.2116
ाधान	-11.2116
▁उपाध्यक्ष	-11.2116
▁de	-11.2118
निवार्य	-11.2119
ुपरि	-11.2121
Di	-11.2121
चालित	-11.2124
ide	-11.2128
▁झिल्ली	-11.2129
▁प्रवृत्ताः	-11.2129
प्रविधि	-11.2131
▁विचारित	-11.2134
▁अमेरिकादेशे	-11.2135
▁माम	-11.2137
गुहाः	-11.2137
पञ्चम	-11.2139
▁नवमे	-11.2139
वस्तुनः	-11.2139
▁अव्ययम्	-11.214
विकल	-11.2144
▁प्रस्तावना	-11.2146
▁प्ला	-11.2146
प्रतिबिम्ब	-11.2148
ेभ्यश्च	-11.2151
▁क्वचिद	-11.2152
▁15	-11.2152
▁थे	-11.2153
▁सम्पादनं	-11.2154
तान्त्रिक	-11.2159
▁एकविंशति	-11.2162
देशयोः	-11.2162
▁महाभाग	-11.2163
▁महाबल	-11.2164
पूरण	-11.2164
नाटकम्	-11.2166
माहात्म्य	-11.2167
निर्वाचने	-11.217
▁कञ्चित्	-11.2173
वाजपेय	-11.2173
▁उत्पद्यमान	-11.2174
▁महाबाहो	-11.2174
▁वडोदरा	-11.2174
▁तृष्णा	-11.2174
▁कठिनं	-11.2174
हिंसा	-11.2174
▁अमरावती	-11.2174
▁१९५२	-11.2175
uk	-11.2175
कुट्ट	-11.2175
▁१९८९	-11.2175
कीय	-11.2175
▁जर्नल	-11.2176
▁विनिमय	-11.2176
▁ऊढ	-11.2176
▁विदूषक	-11.2176
▁दक्षिणकन्नड	-11.2177
▁निवृत्तः	-11.2177
ण्ड्र	-11.2178
ton	-11.2178
्रियते	-11.2178
▁अनुचित	-11.2178
▁प्रवेशद्वार	-11.2178
▁ग्रन्थिः	-11.2179
▁परीक्षाया	-11.2179
यत्र	-11.2179
▁भारतसर्वकारेण	-11.2181
लोह	-11.2181
परीक्षायाः	-11.2186
सङ्ग्रहालयः	-11.2186
व्यथ	-11.2188
दिया	-11.2188
वाचस्पत	-11.2189
▁म्या	-11.219
भिप्राय	-11.219
▁पौत्र	-11.219
परिश्रमेण	-11.2192
मेवेति	-11.2194
▁गहनतया	-11.2196
▁देवदत्त	-11.2197
▁अग्ने	-11.2198
▁कविर	-11.2199
▁कण्व	-11.22
▁सञ्जय	-11.22
ष्यते	-11.22
▁प्रकाशिताः	-11.2203
वामन	-11.2205
ोद्देश्य	-11.2207
पद्धत	-11.2208
▁भूयः	-11.2208
भावनया	-11.2208
ाकर्षण	-11.2208
▁शैल्या	-11.221
▁दशा	-11.2215
▁सूत्रस्य	-11.2215
▁विकासं	-11.2216
▁यूरोपीय	-11.2216
▁नामिका	-11.2219
▁प्रगतिः	-11.2221
सन्निकर्ष	-11.2223
▁स्वतन्त्रः	-11.2223
रायण	-11.2229
▁वेदाध्ययन	-11.2232
सुधार	-11.2232
दिशा	-11.2232
▁For	-11.2232
ानयन	-11.2234
तीर्थस्य	-11.2235
ावसर	-11.2236
न्दर	-11.2237
▁काशिका	-11.2238
▁गन्तुम्	-11.2239
िण्या	-11.224
▁इत्युक्तम्	-11.2241
बिया	-11.2241
▁भारतदेश	-11.2241
स्माभिर	-11.2243
स्तरः	-11.2243
ोऽन	-11.2244
स्थानां	-11.2244
▁अभिनवगुप्तः	-11.2247
▁मल्लिका	-11.2251
▁गन्तव्यम्	-11.2251
कारणम्	-11.2252
▁स्याद्	-11.2255
▁सावधानता	-11.2257
वादिन	-11.2258
▁सूत्रकार	-11.2258
▁अवबोध	-11.2259
▁दह	-11.2259
ब्राह्मणम्	-11.226
▁मुम्बै	-11.2262
▁संकेत	-11.2264
▁उत्तेजन	-11.2264
▁शङ्कराचार्य	-11.2265
▁शह	-11.2268
मात्य	-11.227
▁प्रदान	-11.2274
▁मूल्याङ्कनं	-11.2277
▁यौ	-11.2278
▁चिदम्बर	-11.2279
जन्त	-11.2279
कोर	-11.2279
ाहुः	-11.2281
▁एक्स	-11.2282
▁प्रोक्ता	-11.2282
▁शरीरम्	-11.2283
्यन्त	-11.2283
▁निलय	-11.2284
न्ट्	-11.2284
▁विवर्तन	-11.2285
राघव	-11.2288
▁आरण्यक	-11.2292
ामहे	-11.2292
▁बेल	-11.2292
रुपा	-11.2296
संयोजक	-11.2297
▁रुग्ण	-11.2298
▁पार्श्वनाथ	-11.2298
कार्यक्रमाः	-11.2299
कुञ्ज	-11.2299
भरत	-11.2299
ीकृतम्	-11.23
▁चक्रवर्ती	-11.23
▁अपेक्ष	-11.2301
▁खण्डित	-11.2302
▁मेरुदण्डे	-11.2302
कुर्वत	-11.2302
▁गृहम्	-11.2303
संवेदनशील	-11.2308
युग्म	-11.2309
▁डु	-11.231
उत्सवः	-11.231
त्यन्त	-11.2311
साध	-11.2312
▁सस्यानां	-11.2313
▁विक्रय	-11.2314
▁अजमेर	-11.2316
▁इतिहासकार	-11.2316
▁प्रदर्श्य	-11.2316
दशम	-11.2318
▁शश	-11.232
Sp	-11.232
а	-11.2321
ವ	-11.2321
▁एलिजाबेथ	-11.2321
▁कस्तूरबा	-11.2321
▁इम्फाल	-11.2321
▁औरङ्गाबाद	-11.2321
▁शोभते	-11.2321
▁उन्माद	-11.2321
▁आहूय	-11.2321
▁उच्चन्यायालय	-11.2321
ुच्चारण	-11.2322
▁निर्मीयन्ते	-11.2322
▁अपगच्छति	-11.2323
▁प्रशासनिक	-11.2323
मित्युच्यते	-11.2325
कारिणः	-11.2325
▁अधीतवान्	-11.2326
▁सृष्टेः	-11.2326
▁विफल	-11.2326
मुत्तर	-11.2326
स्थित्या	-11.2326
▁बुद्धिमान्	-11.2327
▁सम्पाद्यते	-11.2328
▁दक्षिणहस्त	-11.2329
गिरी	-11.233
▁पुरुषो	-11.233
स्पृष्ट	-11.2332
ोल्लास	-11.2334
विशेषेण	-11.2335
निवासिन	-11.2336
rat	-11.2337
▁अङ्कीय	-11.2337
विधानं	-11.2339
प्राप्तये	-11.2341
▁पराजित्य	-11.2341
▁अनुप	-11.2342
▁ततोऽ	-11.2345
नायास	-11.2346
वित्तकोष	-11.2346
धुर	-11.2347
▁खर	-11.2348
▁जिह्वा	-11.2348
▁आधिक्येन	-11.2348
▁बृहत्तर	-11.2348
स्त्रिय	-11.2348
▁असाधारण	-11.2348
▁इस	-11.235
लेज	-11.235
▁नैके	-11.2354
▁पितृव्य	-11.2357
05	-11.236
14	-11.2361
▁धरण	-11.2361
▁मतभेद	-11.2366
▁प्रथमतः	-11.2367
निरूपणं	-11.2372
जनाङ्ग	-11.2372
ong	-11.2372
ओडि	-11.2373
▁गहनतर	-11.2373
साह	-11.2378
वायुः	-11.2379
समूहाः	-11.2379
nk	-11.238
भागाः	-11.2385
▁भवितव्यम्	-11.2389
ोऽव	-11.2391
मतानुसार	-11.2391
वयव	-11.2392
▁अध्यापन	-11.2393
▁प्रकारस्य	-11.2395
वर्धनार्थं	-11.2396
▁जुलैमास	-11.2398
परीक्ष	-11.2399
एन	-11.2399
ऽभवत्	-11.2403
गच्छेत्	-11.2405
कारकं	-11.2406
▁क्त	-11.2407
संस्थानस्य	-11.2407
▁रेफः	-11.2408
प्राङ्गण	-11.241
र्क्	-11.2411
चक्रस्य	-11.2412
पुत्रस्य	-11.2412
चेतसा	-11.2413
▁अध्ययनस्य	-11.2413
योजित	-11.2414
दंश	-11.2414
परिणामः	-11.2417
हृद्	-11.2417
समित	-11.2418
▁युधिष्ठिरः	-11.242
tan	-11.242
▁आहत	-11.2421
▁ज्यौतिष	-11.2421
▁कलायाः	-11.2422
▁४६	-11.2423
▁सुखद	-11.2424
ानुरूप	-11.2425
▁पण	-11.2426
स्वतन्त्रतायै	-11.2429
फ्रा	-11.2432
▁चित्रा	-11.2434
कर्णिका	-11.2434
▁पाचनं	-11.2434
वासिन	-11.2435
प्रत्ययसम्बन्ध	-11.2436
विर	-11.2436
▁h	-11.2438
ब्राह्मणाः	-11.2438
▁अस्मै	-11.244
योगी	-11.2442
पत्न्य	-11.2442
बन	-11.2444
ानेव	-11.2444
▁मद्य	-11.2447
नशील	-11.2447
वार्तिक	-11.2448
▁वचनम्	-11.2449
▁उक्ताः	-11.2449
नुसारम्	-11.2449
▁प्रार्थनां	-11.245
प्रताप	-11.2457
Lo	-11.2458
▁शरीरिण	-11.2459
कन्दर	-11.2462
▁स्थलानि	-11.2464
▁अश्रु	-11.2465
पत्रे	-11.2465
▁अयन	-11.2467
▁द्योत	-11.2467
X	-11.247
ಮ	-11.247
▁भिद्यते	-11.247
ು	-11.247
▁आश्चर्यचकित	-11.247
गङ्ग	-11.247
▁State	-11.247
▁पाण्डवाः	-11.247
▁प्रतापरुद्र	-11.247
▁मार्गशीर्ष	-11.247
सेतु	-11.2471
▁चतुर्भुज	-11.2471
▁१९७३	-11.2472
▁साहित्यदर्पण	-11.2472
▁बीजगणित	-11.2472
▁समुपस्थित	-11.2472
ाधीश	-11.2472
▁मीडिया	-11.2472
▁परिचाय	-11.2473
▁पूजयन्ति	-11.2473
विषयत्व	-11.2475
▁सिकता	-11.2475
▁सुग्रीव	-11.2475
▁व्यक्तेः	-11.2476
▁कण	-11.2476
तर्पण	-11.2476
▁मोटा	-11.2476
▁रक्षितुं	-11.2476
▁प्रतिबिम्बयति	-11.2477
▁सङ्घस्य	-11.2477
▁समर्थनार्थं	-11.2478
युतः	-11.2478
ट्टा	-11.2479
▁विक्षिप्त	-11.248
भक्तः	-11.248
▁धरा	-11.2482
▁चित्ते	-11.2482
मुदाहरण	-11.2483
▁अभिन्न	-11.2485
▁तुलसीदास	-11.2485
▁निर्गुण	-11.2487
▁टीकाकार	-11.2489
▁श्रान्त	-11.2491
लोभ	-11.2491
यानेन	-11.2492
स्मृत	-11.2496
▁बलराम	-11.2498
शिरोमणि	-11.2499
▁मृच्छकटिक	-11.25
निर्वाह	-11.2502
ाचार्याः	-11.2502
गौ	-11.2502
▁पृथु	-11.2504
▁महाराजस्य	-11.2504
▁अहमेव	-11.2505
विरोधिन	-11.2505
सन्न	-11.2505
▁प्रस्तावित	-11.2505
▁अनुक्षण	-11.2507
ङ्गु	-11.2509
यताम्	-11.251
संघ	-11.251
विरोधी	-11.251
बाल्	-11.2517
▁एला	-11.2521
बहुल	-11.2521
नेट	-11.2522
मवाप्त	-11.2524
ज्ञानाय	-11.2527
स्माभिः	-11.2528
▁सङ्गणक	-11.2529
▁मानसिकस्पष्टता	-11.253
गुहाया	-11.253
▁असत्	-11.2531
▁आरोपित	-11.2533
▁मनुः	-11.2535
▁द्वादशे	-11.2538
वासना	-11.2543
▁व्यापारस्य	-11.2545
▁निरूपितम्	-11.2547
द्वीपे	-11.2547
परिभाषा	-11.2549
लेन्स	-11.255
ाभ्यन्तर	-11.2556
▁औप	-11.2557
▁संतुलन	-11.2558
▁भ्रमणार्थ	-11.2562
▁प्रतीतिः	-11.2566
वस्थित	-11.2567
मधु	-11.257
मतेन	-11.2571
▁राजगुरु	-11.2572
न्द्रनाथ	-11.2574
यन्त्राणि	-11.2574
वाचस्पतिमिश्र	-11.2583
ari	-11.2585
▁पतञ्जलिना	-11.2588
bh	-11.2589
▁वर्धिता	-11.2593
▁आचार्याः	-11.2595
▁लक्षं	-11.2595
लङ्काराणां	-11.2599
▁उद्ध	-11.2601
ग्री	-11.2602
▁सुदृढा	-11.2604
पस्मार	-11.2605
▁खिन्नता	-11.2609
▁भावाः	-11.2612
निरत	-11.2612
▁यच्छ	-11.2613
▁विल्	-11.2614
चेत	-11.2615
▁तापमान	-11.2615
तृष्ण	-11.2615
नुव्याख्यास्यामः	-11.2621
র	-11.2621
▁History	-11.2621
▁आविष्कृत	-11.2621
▁परिणीतवान्	-11.2621
▁भट्टोत्पल	-11.2621
▁अक्टूबर	-11.2621
▁जोधपुर	-11.2621
▁मन्यामहे	-11.2621
मिष	-11.2621
▁हस्तिनापुर	-11.2621
▁चम्पूकाव्य	-11.2622
▁विश्रान्ति	-11.2622
▁अत्यल्प	-11.2622
▁जीरिका	-11.2622
▁List	-11.2622
ार्यभट	-11.2623
सूत्रे	-11.2623
वृत्त्या	-11.2623
▁एवम्प्रकारेण	-11.2623
▁प्रतिबन्ध	-11.2623
ायुष	-11.2624
▁संगठन	-11.2625
▁संघर्ष	-11.2625
▁तिक्त	-11.2625
▁नेवार	-11.2625
▁हरदत्त	-11.2626
▁द्योतयति	-11.2626
ब्राह्मणे	-11.2627
▁सूचयन्ति	-11.2627
▁शूल	-11.2627
▁निर्विकार	-11.2628
▁अवलम्ब्य	-11.2628
▁मिलन्ति	-11.2628
▁संक्षेपेण	-11.2629
पुल	-11.2632
▁पूजय	-11.2633
ons	-11.2636
▁त्रुटिः	-11.2636
▁इच्छामि	-11.2636
मिच्छति	-11.2637
▁सूत्रधार	-11.2638
दर्शनात्	-11.2639
▁समर्थयति	-11.264
▁दलस्य	-11.264
▁इर	-11.264
▁सौराष्ट्र	-11.2641
▁उपनिषत्सु	-11.2641
▁गतवती	-11.2643
▁सृज	-11.2643
▁नगरीय	-11.2644
▁अहङ्कारः	-11.2644
अह	-11.2645
▁फलरस	-11.2648
▁एकमास	-11.2649
▁पूर्वानुभव	-11.265
कल्पित	-11.2651
▁ऋक्	-11.2653
वल्या	-11.2653
▁कलात्मक	-11.2654
शृङ्ग	-11.2657
▁द्विविधं	-11.2657
सरणि	-11.2658
▁रक्षति	-11.2658
▁Chin	-11.266
स्थैर्य	-11.2661
सापेक्ष	-11.2664
▁विद्वांस	-11.2665
▁मता	-11.2667
जगतः	-11.2668
▁वैशिष्टय	-11.2668
▁समकालिक	-11.2669
तीय	-11.2671
न्यथा	-11.2671
▁अनामिका	-11.2671
▁उपरिभाग	-11.2673
भक्षण	-11.2673
विभागाः	-11.2674
▁ब्या	-11.2675
▁सुरक्षितं	-11.2676
▁मार्च्	-11.2676
ञ्जलि	-11.268
▁गणपति	-11.268
वासरः	-11.2684
▁सौभाग्य	-11.2685
▁चतुर्थी	-11.2686
▁कुटीर	-11.2687
न्तर्गत	-11.2689
ेशन	-11.2691
▁गृहीतः	-11.2692
▁प्रवर्तक	-11.2693
▁मुण्ड	-11.2694
परम्परासु	-11.2694
▁अधिकरण	-11.2698
▁वेध	-11.2698
▁पद्मनाभ	-11.2701
▁निर्वाहयितुम्	-11.2703
क्ट्	-11.2703
▁अमेरिकन	-11.2705
ight	-11.2705
▁con	-11.2705
▁विहितः	-11.2706
सेवायाः	-11.2708
▁इत्येन	-11.271
द्रु	-11.2711
▁तैलं	-11.2711
त्युच्यते	-11.2711
▁ज्वलन	-11.2712
वाहिनी	-11.2713
▁रहस्यं	-11.2715
▁निर्माणस्य	-11.2716
las	-11.2717
▁सदृशं	-11.2717
▁मिश्रण	-11.2717
कृद्	-11.2719
▁बाङ्गलादेश	-11.272
समित्या	-11.2721
सभ्यता	-11.2722
▁ज्योतिर्लिङ्ग	-11.2723
▁विहिता	-11.2725
▁मन्त्रे	-11.2725
▁भूषण	-11.2728
▁पर्वतीय	-11.2732
▁ज्ञानिन	-11.2732
नेट्	-11.2733
स्थापक	-11.2734
▁आवश्यकतानां	-11.2735
▁जयन्त	-11.2737
प्रकाशिका	-11.2738
▁मध्यप्रदेशस्य	-11.2739
▁अक्षय	-11.2739
स्मादेव	-11.2739
केट्	-11.274
▁पवन	-11.274
चूडामणि	-11.2742
▁नासा	-11.2746
▁सेवाया	-11.2746
हृ	-11.2747
▁साङ्ख्ययोगः	-11.2747
निर्वाचन	-11.2747
योनि	-11.275
▁वदन्त	-11.2752
प्राधान्य	-11.2756
▁बेळगावी	-11.2756
वितरण	-11.2757
प्रशंसा	-11.2758
▁पूर्ववर्ती	-11.2759
चम्पूः	-11.2759
मासिक	-11.276
महाराजस्य	-11.2761
▁राष्ट्रकूट	-11.2762
क्रीडालुः	-11.2765
▁वर्णानां	-11.2765
प्रकरणं	-11.2766
▁जैनतीर्थ	-11.2768
स्वीकार	-11.2768
है	-11.2769
मुह	-11.2769
▁वाचा	-11.277
ive	-11.2771
कारिणी	-11.2773
▁सृष्टिः	-11.2773
▁Library	-11.2775
▁औष्ण्य	-11.2775
▁धूमशकटमार्गेण	-11.2775
▁Yoga	-11.2775
▁अभिषेक	-11.2775
कक्ष्या	-11.2775
▁प्रागुक्त	-11.2776
▁सात्विक	-11.2776
▁उपहार	-11.2776
प्रकरणम्	-11.2776
स्तोत्रम्	-11.2777
कौतुक	-11.2777
▁कर्कट	-11.2777
मेष	-11.2777
▁रोचक	-11.2777
▁सम्प्राप्य	-11.2777
▁१९४५	-11.2778
▁कन्नडभाषया	-11.2779
▁भेदा	-11.2781
▁अनशन	-11.2781
▁प्राक्तन	-11.2782
लक्ष्मण	-11.2783
स्टा	-11.2786
▁देवलोक	-11.2788
▁शीघ्रमेव	-11.2788
व्याख्य	-11.2789
मात्रस्य	-11.279
▁सङ्गच्छते	-11.2793
▁जिनप्रभसूरिण	-11.2793
▁माण्ड	-11.2794
▁इष्टवान्	-11.2794
चतु	-11.2797
सम्प्रज्ञात	-11.2797
▁तन्तु	-11.2799
▁युक्तं	-11.28
सम्बद्धानि	-11.28
▁जागृत	-11.28
ऽनेक	-11.2801
fe	-11.2802
षड्	-11.2803
▁सप्तविंशति	-11.2803
शताब्द्याः	-11.2803
▁समस्यानां	-11.2804
क्व	-11.2805
▁सुदृढीकरण	-11.2805
क्कर	-11.2805
▁मनःसन्तोषस्य	-11.2805
▁चलच्चित्रे	-11.2805
▁शारीर	-11.2805
▁दुर्गे	-11.2806
देशात्	-11.2807
▁पद्धतिः	-11.2808
▁स्वामिन	-11.2809
पटले	-11.2809
भेदात्	-11.281
▁ग्रहणं	-11.281
लोकसभाक्षेत्राणि	-11.2811
समर्थन	-11.2812
राजाः	-11.2813
पञ्चमी	-11.2815
विज्ञेय	-11.2816
▁नूनम	-11.2818
वाडी	-11.2825
पिता	-11.2827
▁अरनाथ	-11.2829
▁मनोविज्ञानं	-11.283
▁सभ्य	-11.2831
पुष्ट	-11.2833
जक	-11.2835
▁सम्मोह	-11.2835
▁४३	-11.2836
▁वृन्दावन	-11.2837
int	-11.2837
▁स्थितानि	-11.2838
निवार	-11.2839
▁कोड	-11.2839
▁गृह्य	-11.284
शासकैः	-11.284
▁मार्गेण	-11.284
जिज्ञासा	-11.2841
▁फुट	-11.2841
▁भवत्या	-11.2843
नीतिः	-11.2843
▁मुद्राणां	-11.2844
▁उपमान	-11.2845
▁गात्र	-11.2846
मौल	-11.2849
▁तनु	-11.2849
शब्दो	-11.2851
▁यान्त्रिक	-11.2856
▁मुद्ग	-11.2857
िकाया	-11.2859
▁आधारं	-11.286
▁पुत्रेण	-11.2863
▁पुरु	-11.2864
▁दर्शनशास्त्र	-11.2865
dh	-11.2865
प्रणीता	-11.2865
▁अभिनेता	-11.2866
▁क्रो	-11.2869
▁बीजानि	-11.287
▁गणितस्य	-11.2871
▁कार्यकाल	-11.2872
▁गुरुकुल	-11.2873
aya	-11.2873
▁ज्वाला	-11.2883
सूत्रस्य	-11.2884
ावबोध	-11.2885
▁इत्येक	-11.2886
विवेचनम्	-11.2888
▁संस्कृतेः	-11.2888
रञ्ज	-11.289
ाञ्चल	-11.2892
प्रवण	-11.2894
ास्ता	-11.2894
संज्ञित	-11.2896
ऽपर	-11.2897
ष्वपि	-11.2901
पते	-11.2905
▁विद्युत	-11.2905
▁किञ्चित्काल	-11.2906
▁रूस	-11.2907
▁अशक्त	-11.2908
चिकित्सायां	-11.2909
au	-11.2912
▁जातिः	-11.2912
mer	-11.2914
▁प्ल	-11.2914
ायाम	-11.2916
ord	-11.2916
्रियन्ते	-11.2916
विकल्पकप्रत्यक्ष	-11.2917
परिणय	-11.2917
▁अस्याम्	-11.2917
ाचार्यो	-11.2922
भिष	-11.2922
मिया	-11.2923
▁पादयोः	-11.2923
चिकित्स	-11.2924
जानाति	-11.2924
गणेश	-11.2925
▁चुनौती	-11.2926
जातिः	-11.2926
▁आरोह	-11.2927
▁पृथ	-11.2927
▁आधिपत्य	-11.2929
ैतिहासिक	-11.2931
शुश्रूष	-11.2931
गाम्भीर्य	-11.2931
▁नवेम्बर्	-11.2931
▁प्रस्तौति	-11.2931
▁वेशभूषणानि	-11.2931
و	-11.2931
▁औचित्य	-11.2931
▁शक्नोमि	-11.2931
▁त्रुटयः	-11.2931
▁निमज्ज	-11.2932
▁अनुयायिनः	-11.2932
▁अत्याचार	-11.2933
▁१९८१	-11.2933
▁करिष्यामः	-11.2933
▁प्रत्युत्तर	-11.2934
▁विक्रमसंवत्सर	-11.2934
▁भजन्ते	-11.2935
▁पादोन्नत	-11.2936
किलोमीटर	-11.2936
▁भगवती	-11.2936
▁महाकविः	-11.2936
▁संयोजित	-11.2936
ern	-11.2937
▁तदनुसारेण	-11.2937
▁मुद	-11.2937
▁२०२२	-11.2938
▁प्रेषयति	-11.2939
▁सङ्कट	-11.2939
▁सखी	-11.294
▁चमत्कारजनक	-11.2941
▁विदर्भ	-11.2941
▁आकारः	-11.2942
▁वामपाद	-11.2942
▁गौर	-11.2942
▁सम्भवन्ति	-11.2943
चतुर	-11.2944
प्रवीण	-11.2946
सिंहासन	-11.2946
ऐतिहासिकस्थानानि	-11.2946
▁अनुबन्ध	-11.2946
जिया	-11.2947
▁रङ्गनाथ	-11.2948
विजयनगरसाम्राज्य	-11.2951
▁अनुभूयते	-11.2952
▁परिणय	-11.2952
टिप्पण	-11.2953
▁देवान्	-11.2954
भाग्य	-11.2954
पुरस्कारं	-11.2955
▁इतिहासविदा	-11.2955
निरुक्त	-11.2956
▁श्रावक	-11.2957
▁वैक्रमाब्दे	-11.2958
▁भक्तियोग	-11.296
▁पृष्ठभूमि	-11.296
▁पर्यन्त	-11.2963
▁इत्यादय	-11.2965
धेनु	-11.2967
▁अन्विष्य	-11.2967
su	-11.2968
बृहती	-11.2968
▁अर्ह	-11.2969
शुध्द	-11.2969
भिनय	-11.297
अश्व	-11.2972
▁अम्बिका	-11.2976
▁विद्व	-11.2976
▁13	-11.2977
▁दुष्कर	-11.2977
भविष्यत्	-11.298
▁पदार्थस्य	-11.298
▁इस्लाम्	-11.2981
▁च्यवन	-11.2982
ग्राह्य	-11.2983
विल्	-11.2983
▁हिताय	-11.2985
▁प्या	-11.2986
सन्तति	-11.2986
लक्षित	-11.2988
ान्तं	-11.2991
्रियमाण	-11.2991
माचार्य	-11.2992
▁क्षेत्रफल	-11.2994
कलि	-11.2994
▁मिथुन	-11.2996
सङ्ग्रामे	-11.2997
▁स्वास्थ्यस्य	-11.2999
▁धु	-11.2999
जीवि	-11.3002
▁इदानीमप	-11.3002
▁उद्देश	-11.3004
▁सद्भाव	-11.3005
▁तस्मा	-11.3006
पठन	-11.3007
क्या	-11.3007
▁काम्य	-11.3008
▁प्राति	-11.3008
▁विश्वरूप	-11.3009
▁दीक्षां	-11.3009
▁परिशिष्ट	-11.3011
▁काऽपि	-11.3012
तीर्थङ्कर	-11.3012
▁सशक्त	-11.3012
▁फु	-11.3013
श्रेण	-11.3013
ायुः	-11.3013
▁पथ	-11.3013
भुव	-11.3013
▁देशकाल	-11.3014
▁स्थिरता	-11.3015
सर्वकारः	-11.3015
मतीव	-11.3017
▁सम्प्रदायः	-11.3018
विमानस्थानकं	-11.3021
▁ह्रास	-11.3022
▁मूलप्रवृत्तीना	-11.3023
▁बेङ्गलूरु	-11.3025
▁वैज्ञानिकाः	-11.303
▁ब्रह्मज्ञान	-11.3032
▁नाटकमिद	-11.3032
▁चत्वारो	-11.3035
निवारक	-11.3037
▁उत्तराखण्डराज्य	-11.3039
ोद्धार	-11.304
▁तू	-11.3042
विधानम्	-11.3043
▁कोमल	-11.3044
श्चैव	-11.3044
नगरमण्डलम्	-11.3046
नाटकस्य	-11.3047
ोऽसि	-11.3047
▁वाचिक	-11.3053
ऽनेन	-11.3054
▁सम्बद्धानि	-11.3054
बध्द	-11.3055
पुरुषार्थ	-11.3056
न्नपि	-11.3056
भाद्रपद	-11.3058
च्चि	-11.3059
▁परिसरे	-11.306
प्रभृतयो	-11.3061
▁कष्टं	-11.3062
प्रण	-11.3063
स्फोट	-11.3064
द्वयेन	-11.3064
ाइट्	-11.3065
▁सङ्गत	-11.3065
▁धमनी	-11.3068
▁स्वरुप	-11.3069
▁वत्सराज	-11.3069
▁साहित्यस्य	-11.3071
वैष्णव	-11.3071
भिश्च	-11.3073
▁पोल	-11.3075
स्मिन	-11.3076
श्रित	-11.3078
प्रौद्योगिकी	-11.3078
पर्यावरण	-11.3078
व्याघ्र	-11.3079
▁समानान्तर	-11.3081
▁चित्रकला	-11.3082
मिय	-11.3083
पञ्चाशत्	-11.3085
ेश्वरदेवालयः	-11.3086
वसु	-11.3087
▁निरस्त	-11.3088
▁भुव	-11.309
▁मुनिसुव्रतनाथ	-11.309
▁अतिक्रम्य	-11.309
▁मास्लो	-11.309
▁व्यवहृत	-11.309
▁लुण्ठ	-11.309
ाधिकारिणः	-11.3091
▁जालपुट	-11.3091
▁धूमशकटयान	-11.3091
क्टर्	-11.3092
▁उत्तेजयति	-11.3092
▁१९६८	-11.3093
▁ज्ञातुम्	-11.3093
सामयिक	-11.3094
▁खादन्ति	-11.3095
▁वर्षाणां	-11.3095
ोऽथ	-11.3096
▁भवानी	-11.3096
▁पतन्ति	-11.3096
▁सामर्थ्यं	-11.3097
▁निर्माणकार्य	-11.3098
▁तानयति	-11.3098
मन्त्राणां	-11.3098
▁दशरथस्य	-11.3099
▁लिखित्वा	-11.3099
▁व्याडि	-11.31
▁जैनमत	-11.3101
ber	-11.3103
बृह	-11.3104
▁बालाः	-11.3105
वाहि	-11.3106
समवाय	-11.3107
▁यौन	-11.3108
चातुर्य	-11.3109
गुम्फ	-11.3111
▁धरति	-11.3111
▁समुद्भूत	-11.3111
▁कोल्हापुर	-11.3111
नागरिक	-11.3112
▁शास्त्रे	-11.3113
ानुशीलन	-11.3114
विश्वविद्यालयतः	-11.3115
▁लिखितमस्ति	-11.3115
मासपर्यन्तं	-11.3117
द्वा	-11.3118
ूट	-11.3119
▁राज्ञ	-11.3119
▁प्रिया	-11.3119
त्यधिक	-11.312
क्रियासु	-11.3121
अग्नि	-11.3121
▁गुह्य	-11.3122
▁कलायः	-11.3123
▁बीजं	-11.3125
दोषाः	-11.3126
ैकादश	-11.3127
▁भट्टि	-11.3128
▁भीमस्य	-11.3128
▁विधेय	-11.3128
चिन	-11.313
पतति	-11.3132
▁ताम	-11.3132
दशायां	-11.3133
धिकृत्य	-11.3135
परिकर	-11.3137
▁प्रतिष्ठिता	-11.314
नृपते	-11.314
▁कटक	-11.3145
▁देवैः	-11.3146
▁चूर्णं	-11.3149
dy	-11.3149
मला	-11.3149
AT	-11.315
▁परब्रह्म	-11.3151
ष्प	-11.3151
▁वमन	-11.3151
▁त्यागपत्र	-11.3152
▁लाट	-11.3155
▁क्षेम	-11.3156
ाम्बर	-11.3162
▁अभावे	-11.3162
धिगम	-11.3164
परिस्थित्य	-11.3165
▁अट्ट	-11.3167
▁प्रसृता	-11.3173
▁हतः	-11.3174
ळु	-11.3175
क्रीड	-11.3175
ब्ल	-11.3177
परिवर्तनस्य	-11.3182
▁समानरूपेण	-11.3187
▁स्वकीये	-11.3187
योगदान	-11.3193
▁निश्चितं	-11.3193
▁पीठिका	-11.3195
▁निरीक्ष	-11.3195
▁आत्मतत्त्व	-11.3196
▁सर्वस्व	-11.3197
▁पाण्डुरङ्ग	-11.3198
राष्ट्रपतित्वेन	-11.32
▁प्रथमो	-11.3203
▁क्रोधः	-11.3205
▁मानुष	-11.3207
▁अर्ज	-11.321
▁पोषण	-11.3213
▁बुद्ध्या	-11.3215
▁दुःखम्	-11.3219
▁विस्तीर्ण	-11.322
▁देवालये	-11.3222
▁दिशा	-11.3222
▁वेगः	-11.3223
न्नासीत्	-11.3225
ादीना	-11.3226
▁केचिद	-11.3228
▁क्षणिक	-11.3228
▁भक्तानां	-11.3229
▁खिल	-11.3231
चै	-11.3232
ica	-11.3233
▁भूमार्ग	-11.3239
ज्ञायते	-11.3239
भवन्ति	-11.324
पादपरिमित	-11.324
▁वाच्यम्	-11.3241
▁सामान्यजन	-11.3243
▁समीक्षा	-11.3244
पञ्जाब	-11.3245
▁श्रीरामस्य	-11.3247
▁वर्षपर्यन्तं	-11.3247
कौस्तुभ	-11.3249
ɡ	-11.3251
▁शीतर्तौ	-11.3251
▁क्वथित	-11.3251
▁तदुक्तम्	-11.3252
▁ध्वन्यालोक	-11.3252
▁उद्भट	-11.3252
▁विरोधाभास	-11.3252
▁रविशङ्कर	-11.3253
उद्योग	-11.3253
न्यू	-11.3254
▁ददातु	-11.3255
अनुभव	-11.3256
विक्रय	-11.3258
ps	-11.3258
▁२०२३	-11.3258
परिचित	-11.3259
▁यकृत्	-11.326
ारोहण	-11.326
पुरस्सरं	-11.3261
▁सम्पादकः	-11.3262
वीक्षण	-11.3262
▁पश्यामि	-11.3263
▁गाढ	-11.3264
▁अवलोक्य	-11.3264
ram	-11.3265
▁परिवर्तते	-11.3265
वस्थाया	-11.3266
▁प्रभवन्ति	-11.3266
▁राबर्ट्	-11.3267
▁उद्भूता	-11.3268
▁काचन	-11.3268
▁डॉ०	-11.327
सम्बन्धी	-11.327
हिन्दू	-11.3271
▁अवगमनं	-11.3272
▁निर्देशकः	-11.3272
▁त्यजति	-11.3272
▁अथर्ववेदस्य	-11.3273
बान्धव	-11.3273
क्रीडोत्सव	-11.3275
▁सहित	-11.328
ोऽभूत्	-11.328
जगत्	-11.3281
▁अञ्चले	-11.3281
नर्तक	-11.3282
▁पुराणानि	-11.3282
▁सुखेन	-11.3283
▁आक्रान्त	-11.3283
▁हैदराबाद्	-11.3283
ल्लूरु	-11.3285
▁सम्पन्नः	-11.3287
▁फ्रायड्	-11.3289
▁ईशवीये	-11.3289
गोत्रीय	-11.3291
जम्बुद्वीप	-11.3292
▁लक्ष्यते	-11.3292
गीर	-11.3293
▁बाणभट्ट	-11.3294
ासीद	-11.3297
प्रमाणम्	-11.3298
महो	-11.33
▁गान्धार	-11.33
▁जायमाना	-11.3301
▁स्थितवान्	-11.3301
nic	-11.3301
करुण	-11.3303
▁प्रात	-11.3304
▁यौगिक	-11.3304
▁मालवा	-11.3307
▁बू	-11.3307
महोदयाना	-11.3307
▁रज्जु	-11.3307
मासीदिति	-11.3309
▁स्थानस्य	-11.3311
ड़ी	-11.3311
▁वर्गीकृत	-11.3314
▁केन्द्रे	-11.3314
िष्ट	-11.3316
▁प्रव	-11.3316
योश्च	-11.3316
▁नासन्	-11.3321
वासिनां	-11.3321
युक्तो	-11.3323
पदानि	-11.3323
▁गृह्ण	-11.3323
हेतुः	-11.3325
▁उच्चतम	-11.3326
▁स्वस्मिन्	-11.3329
बहि	-11.3331
▁ग्रहस्य	-11.3333
▁विभक्ता	-11.3333
▁मुकुट	-11.3334
नारद	-11.3335
▁चिन्तनम्	-11.3336
ीभवन्ति	-11.3337
▁सूत्रम्	-11.3337
▁फाल्गुन	-11.3338
मोड	-11.3339
तृण	-11.3343
▁विद्यमानम्	-11.3347
▁सिद्धान्ते	-11.3352
गमनम्	-11.3353
▁मतस्य	-11.3353
▁प्रवाहः	-11.3354
▁तन्मते	-11.3357
▁राज्यानां	-11.3359
▁प्रवचनं	-11.3359
▁प्रतिबिम्बं	-11.3363
▁कोटिः	-11.3364
▁कार्पास	-11.3364
हैदर	-11.3364
नद्यः	-11.3365
▁छत्र	-11.3365
▁माधुर्य	-11.3368
▁विशेषत	-11.3368
▁आन्दोलनं	-11.3369
वाम	-11.3372
▁साम्प्रत	-11.3373
▁निरुप	-11.3373
सलिल	-11.3375
भाष्यकार	-11.3375
ज्वर	-11.3377
यतीति	-11.3379
दिनाङ्क	-11.3379
तू	-11.3386
भवने	-11.3389
▁उपयोगी	-11.339
▁एकाग्र	-11.3391
प्रतिशत	-11.3392
▁नाम्नी	-11.3393
▁संस्कृतभाषायाः	-11.3394
An	-11.3394
▁दातव्यम्	-11.3396
ैते	-11.3396
पाठशाला	-11.3397
▁ब्राह्मणानां	-11.3401
▁पञ्चसु	-11.3403
▁समुद्रतीर	-11.3403
परीक्षाणां	-11.3403
ue	-11.3404
▁निरुक्ते	-11.3405
सञ्चालन	-11.3405
चुम्ब	-11.3406
▁गदग	-11.3407
उपत्यका	-11.3409
▁गानं	-11.3409
▁बन्दिन	-11.341
ય	-11.341
दुर्गस्य	-11.3411
न्वय	-11.3412
▁चिह्नं	-11.3413
▁कृष्णेन	-11.3413
नायकस्य	-11.3413
ʃ	-11.3415
▁पलाण्डु	-11.3415
▁प्रवर्धयितुं	-11.3415
▁वासुपूज्य	-11.3415
▁शैशव	-11.3415
▁प्राप्नुयात्	-11.3415
▁वाक्यपदीय	-11.3415
▁योनि	-11.3415
▁ठाकुर	-11.3416
▁जवाहरलाल	-11.3416
▁हिमाचलप्रदेश	-11.3416
▁2001	-11.3416
▁दमयन्ती	-11.3416
▁मणिबेन	-11.3416
▁साहिब	-11.3416
▁निर्गतः	-11.3416
▁लेभे	-11.3417
▁गीतगोविन्द	-11.3417
▁गृहस्थाश्रम	-11.3417
▁आहूत	-11.3417
▁अधिपतिः	-11.3417
▁१९५५	-11.3417
प्राणायाम	-11.3417
▁१९७६	-11.3418
▁गर्भधारण	-11.3418
▁वरिष्ठ	-11.3418
▁परोपकार	-11.3419
▁उभे	-11.342
▁द्विवारं	-11.342
▁संशोधितवान्	-11.3421
▁जेम्स	-11.3421
समस्यानां	-11.3423
विद्वद्	-11.3425
▁आरक्षित	-11.3426
▁सत्त्वगुण	-11.3427
▁हेच्	-11.3427
▁प्रदर्शितवान्	-11.3427
▁एनम्	-11.3428
लिट्	-11.3429
▁कञ्चन	-11.343
प्स्	-11.3432
▁सुनिश्चित्य	-11.3433
▁शिबिर	-11.3434
▁कार्यक्रमाः	-11.3434
india	-11.3435
▁कलियुग	-11.3435
▁इहलोक	-11.3435
▁देशाः	-11.3436
▁कल्क	-11.3436
▁पतनं	-11.3437
विषयान्	-11.3438
▁प्रवृत्ते	-11.3438
दृष्टया	-11.3439
▁अग्रिमे	-11.3439
शङ्का	-11.3441
पटु	-11.3443
सौख्य	-11.3446
ॉन्	-11.3446
ster	-11.3448
ाख्ये	-11.3448
ाङ्गानि	-11.3449
▁अङ्गुष्ठः	-11.345
▁मङ्गळूरु	-11.3452
▁योगशास्त्र	-11.3452
काष्ठ	-11.3453
▁अधीत	-11.3455
▁सप्तमी	-11.3457
▁सामवेदस्य	-11.3458
▁प्रस्तावः	-11.3458
▁तावन्	-11.3461
▁सदाशिव	-11.3464
नृत	-11.3468
▁निकटतम	-11.3468
▁विद्वान	-11.347
▁इत्यादीन्	-11.3471
जातक	-11.3476
टीकाया	-11.3477
▁धू	-11.3479
▁युद्धाय	-11.348
▁प्रश्नाः	-11.348
▁सङ्ग्रहः	-11.348
चिन्त्य	-11.3481
▁चिकित्सालय	-11.3483
▁अभिव्यक्ति	-11.3484
▁अधिनियम	-11.3485
▁षष्ट	-11.3487
▁राजस्थानस्य	-11.3489
▁द्रष्टुम्	-11.3489
▁सार्व	-11.349
ीन्द्रिय	-11.3494
ासां	-11.3494
▁पौत्रः	-11.3497
▁नमस्कार	-11.3499
त्यत्र	-11.3499
ाक्रमण	-11.3501
सख	-11.3502
▁१५००	-11.3503
ism	-11.3503
ङ्गीकार	-11.3504
शुक	-11.3505
जागर	-11.3507
नवम	-11.3508
▁आकर्षणं	-11.3508
▁जीवन्त	-11.3511
▁मूर्तयः	-11.3512
▁ज्वाल	-11.3514
प्रतिष्ठापन	-11.3515
▁प्राणायामः	-11.3515
▁अलिन्द	-11.3519
सुरक्षा	-11.352
ीभूय	-11.352
रेलस्थानकं	-11.3521
▁केवलम	-11.3522
▁४४	-11.3522
▁मध्यमा	-11.3523
▁उष्णता	-11.3527
वर्षा	-11.3527
▁Ja	-11.3528
▁गर्भे	-11.353
▁स्वरूपे	-11.353
लियो	-11.3531
रेय	-11.3535
▁करणीयं	-11.3537
प्रणाल्य	-11.3538
सहस्राणि	-11.3538
▁विभ	-11.3539
▁वायुमण्डले	-11.3539
▁वर्मा	-11.354
▁16	-11.3541
▁परिवारस्य	-11.3541
▁उपाधिः	-11.3541
▁नवरात्र	-11.3542
▁विच्छिन्न	-11.3543
▁Or	-11.3543
▁देय	-11.3544
13	-11.3544
तनु	-11.3546
महानगरम्	-11.3548
पदानां	-11.3551
टॉ	-11.3553
▁सम्राट्	-11.3554
ाज्ज्ञायते	-11.3559
▁निग्रह	-11.3562
स्थिरता	-11.3563
▁आकाशः	-11.3563
नेय	-11.3564
ee	-11.3564
वचनानि	-11.3565
▁प्रमाणित	-11.3566
वंश्य	-11.3569
▁पुरस्कृत	-11.3571
विद्यापीठ	-11.3573
▁पात्राणि	-11.3573
ans	-11.3575
प्राप्तौ	-11.3575
ोन्नति	-11.3575
▁५१	-11.3576
▁संशोधित	-11.3577
गिरे	-11.3578
पुत्री	-11.3578
वाणिज्य	-11.3579
▁चाह	-11.3579
प्रतिपाद्य	-11.358
काङ्क्ष	-11.358
भैरव	-11.358
विपर्यय	-11.358
▁तद्वत्	-11.358
सूत्रेषु	-11.3581
▁विनि	-11.3581
श्रव	-11.3581
ி	-11.3582
▁मोक्षसंन्यासयोग	-11.3582
ભ	-11.3582
▁चिदंबर	-11.3582
▁अफ्रीका	-11.3582
▁ऐश्वर्य	-11.3582
▁रौद्र	-11.3582
▁अन्विष्ट	-11.3582
▁मस्तक	-11.3582
▁उत्तरायण	-11.3583
▁Comple	-11.3583
▁बाष्प	-11.3583
▁आन्तरिकशान्ति	-11.3584
▁१९५४	-11.3584
▁१९४९	-11.3584
▁१९५३	-11.3584
▁आकाशगङ्गा	-11.3584
पेशी	-11.3585
▁निश्चितम्	-11.3585
परक	-11.3585
▁रतन	-11.3586
▁प्रवर्तन्ते	-11.3586
▁उद्गम	-11.3586
▁प्रतिष्ठान	-11.3587
विचाराः	-11.3587
▁विद्यालयस्य	-11.3588
▁उपस्थापित	-11.3588
मानन्द	-11.3588
शक्नो	-11.3589
ाविर्भाव	-11.359
ुत	-11.359
साक्षात्कार	-11.359
▁आनीतवान्	-11.3591
शैलप्रस्थ	-11.3592
कविना	-11.3592
▁साधयति	-11.3593
▁गणधर	-11.3593
▁हरियाणा	-11.3594
▁वर्धयन्ति	-11.3595
▁पुरातत्त्व	-11.3595
▁स्पृशति	-11.3596
कर्तारं	-11.3596
▁गुणैः	-11.3596
तीरे	-11.3597
▁द्वित्र	-11.3597
नाम्नः	-11.3598
कानून	-11.3598
▁हिन्दीभाषायाः	-11.3599
स्मृतेः	-11.3599
▁परिवर्तनानि	-11.36
ोन्मुख	-11.3601
वेत्ता	-11.3601
▁धर्मनाथ	-11.3602
▁अपरत्र	-11.3602
व्व	-11.3602
वच्छिन्न	-11.3603
सीत्	-11.3611
so	-11.3611
▁भोजनस्य	-11.3612
ोष्ण	-11.3612
साव	-11.3613
▁विदेह	-11.3614
मनेन	-11.3615
▁निष्कास्य	-11.3616
विषयिणी	-11.3617
▁नष्टा	-11.3618
▁परिगण	-11.3619
पोर	-11.3619
und	-11.3619
लैण्ड्	-11.3619
▁सर्वधर्म	-11.362
अस्मिन्	-11.3621
▁प्रेषितः	-11.3622
▁आहारत्वेन	-11.3624
▁विरोधि	-11.3629
▁पञ्ज	-11.3629
art	-11.3629
▁योऽ	-11.363
▁रमण	-11.3631
▁मुक्ता	-11.3634
▁तटस्थ	-11.3636
▁सञ्चित	-11.3636
▁रसायनशास्त्र	-11.3638
अस्ति	-11.3639
ायमान	-11.3639
▁अस्तु	-11.3639
▁वाग्भट	-11.364
▁बालसाहित्य	-11.3642
▁मारित	-11.3643
दग्ध	-11.3644
ाण्येव	-11.3645
▁बारा	-11.3645
▁पदानां	-11.3645
▁प्रलम्ब	-11.3647
▁स्वामित्व	-11.3654
शक्त्य	-11.3654
▁त्रिभिः	-11.3655
▁प्रवर्तन	-11.3656
▁लवणं	-11.3657
ळ्ळि	-11.3658
▁बहुल	-11.3658
▁नास	-11.366
श्राव	-11.366
ाणवः	-11.366
▁मेरी	-11.3661
बाग्	-11.3662
▁भोजदेव	-11.3664
-1	-11.3664
▁सम्बोध	-11.3664
▁प्रतिपादिता	-11.3665
चाप	-11.3666
२००	-11.3668
ष्टौ	-11.3669
▁विदित	-11.367
सभ्यतायाः	-11.367
▁आरम्भिक	-11.3671
गृहाणि	-11.3672
प्रसारण	-11.3672
अल	-11.3673
▁उदार	-11.3673
▁स्वकार्य	-11.3676
▁वस्तुत	-11.3678
▁जनता	-11.3678
▁चन्द्रिका	-11.368
▁तत्काल	-11.368
▁कुमुद	-11.3682
▁अनुरूप	-11.3684
▁निधि	-11.3684
सामग्र	-11.3686
लील	-11.3686
▁गृहेषु	-11.3689
▁एभिः	-11.369
▁सूचन	-11.369
▁गुरुत्व	-11.3693
तीत	-11.3695
▁पर्वतप्रदेशे	-11.3695
ध्यापक	-11.3696
▁रव	-11.3698
▁ग्रंथ	-11.37
▁भारवि	-11.37
▁व्यायोग	-11.37
▁हिन्दुस्तानी	-11.3701
जातीनां	-11.3701
▁श्रावित	-11.3702
ort	-11.3703
▁हर्	-11.3706
▁राष्ट्रध्वज	-11.3707
▁उषा	-11.3708
पर्वतशृङ्खला	-11.3708
छन्दः	-11.3708
▁शरद	-11.371
▁निराकृत	-11.371
्यमाना	-11.3713
▁नृ	-11.3715
विरहित	-11.3717
▁गुहाया	-11.3717
▁वृत्तयः	-11.3717
chi	-11.3718
दाम	-11.3719
eg	-11.372
▁विकृत	-11.372
त्थान	-11.3723
▁आदिवासि	-11.3723
▁कर्मकाण्ड	-11.3724
rə	-11.3727
पत्तनस्य	-11.3728
व्याख्यात	-11.3729
विवरणम्	-11.3729
▁रक्तवर्ण	-11.3729
▁सुभाष	-11.373
प्ति	-11.373
▁विराट	-11.3731
▁तिलक	-11.3731
बलि	-11.3732
▁आशयः	-11.3734
▁८२	-11.3734
जगत	-11.3737
सेल्	-11.3737
▁इक्षु	-11.3738
▁युक्तम्	-11.3738
पश्यन्	-11.374
मण्डन	-11.3741
▁बसव	-11.3743
माचर	-11.3744
▁विज्ञाय	-11.3746
चालुक्य	-11.375
छत्तीसगढ	-11.375
▁अस्	-11.375
▁Krishna	-11.3752
▁ऐतरेयब्राह्मण	-11.3752
ی	-11.3752
ர	-11.3752
ದ	-11.3752
▁मौखिक	-11.3752
×	-11.3752
▁nerve	-11.3752
▁ऐच्छत्	-11.3752
▁परिहरितव्य	-11.3752
कालिदास	-11.3752
▁सार्वत्रिक	-11.3752
▁वन्दे	-11.3752
▁अरविन्द	-11.3752
एफ	-11.3753
ज्ञापक	-11.3753
ोद्धरण	-11.3754
इदं	-11.3754
▁भवन्तीति	-11.3754
▁१९३१	-11.3754
पृष्ठे	-11.3755
ऋषेः	-11.3755
▁भाटक	-11.3755
▁जोशी	-11.3756
इन	-11.3757
▁निरुद्ध	-11.3757
▁धूमपान	-11.3757
▁षण्मास	-11.3758
▁उत्तरार्ध	-11.3759
लिपयः	-11.3759
दिवसे	-11.3759
▁अजयमेरु	-11.3759
नाभ	-11.376
▁१९०५	-11.376
▁सीधा	-11.376
▁लब्ध्वा	-11.3761
▁भावनगर	-11.3762
▁सृजति	-11.3763
आनन्द	-11.3764
▁काञ्चि	-11.3765
ोऽर्थः	-11.3766
▁मिलियन्	-11.3766
गौतम	-11.3766
▁स्मरणार्थ	-11.3768
▁चिक्क	-11.3769
▁बर्मा	-11.3771
▁मण्डप	-11.3771
गुच्छ	-11.3772
▁बक	-11.3772
गोलार्ध	-11.3772
कारणेन	-11.3773
सन्तान	-11.3773
▁कथनमस्ति	-11.3774
▁प्रीत	-11.3775
▁निवर्त	-11.3776
संरचनायाः	-11.3776
▁लाला	-11.3777
पारङ्गत	-11.3778
निकट	-11.3778
▁मृत्तिकायाः	-11.3779
नुगुण	-11.3779
▁लब्धवान्	-11.378
▁निम्ब	-11.3782
▁बङ्क	-11.3782
मागधी	-11.3782
▁आभूषण	-11.3783
▁प्रामाण्यं	-11.3783
ान्दोलने	-11.3784
स्थूल	-11.3785
▁मित्राणि	-11.3785
ऽहं	-11.3785
कारकाः	-11.3788
▁संजात	-11.3789
▁निक्षेप	-11.3789
धारिणः	-11.3789
▁साम्प्रतिक	-11.379
▁चीनी	-11.3791
व्रज	-11.3791
be	-11.3792
ेदम	-11.3794
▁सहायकः	-11.3794
▁कथम	-11.3795
▁कक्षा	-11.3795
▁चिन्तयन्	-11.3799
▁केन्द्रमस्ति	-11.3799
▁देवस्थान	-11.38
किरीट	-11.3801
ost	-11.3802
▁द्रष्टा	-11.3802
▁तारक	-11.3803
▁शारीरक	-11.3803
निकाय	-11.3804
▁प्रयुक्ता	-11.3806
▁कार्पासः	-11.3806
io	-11.3808
▁प्रजातन्त्र	-11.3808
ल्ट्	-11.3809
▁नक्षत्रस्य	-11.381
▁वर्धा	-11.381
▁श्रीरामः	-11.3811
▁शिवाजी	-11.3812
मर्थं	-11.3812
▁समाचर	-11.3813
▁ऋषभदेव	-11.3813
▁निर्देशन	-11.3815
▁बस्	-11.3815
▁उद्धार	-11.3816
▁अभ्यासक	-11.3817
▁आगच्छन्त	-11.3818
▁कार्यकारण	-11.3819
ाख्यो	-11.3819
▁नारायणभट्ट	-11.382
▁प्रतिमायाः	-11.3821
कुर्वन्ति	-11.3822
ज्जीव	-11.3823
▁जपान्	-11.3824
▁निवासी	-11.3825
ोऽलङ्कार	-11.3827
▁आप्त	-11.3827
▁प्रदर्शय	-11.3828
▁चञ्चल	-11.3829
▁हरिण	-11.3829
▁कपट	-11.3831
▁खेद	-11.3832
▁इन्द्रेण	-11.3835
ष्यति	-11.3835
▁विजयी	-11.3837
गद्य	-11.3838
▁निवसन्त	-11.3839
▁चौहानवंश	-11.384
ञ्चित	-11.3842
पेश	-11.3844
▁ज्येष्ठा	-11.3845
▁श्लेष	-11.3848
रेल्	-11.3848
▁घाट	-11.3848
राव्	-11.3849
De	-11.385
वत्सु	-11.3853
▁गुह	-11.3855
मन्त्रिणः	-11.3859
क्सी	-11.386
ावधारण	-11.3861
▁दायित्वम्	-11.3862
स्थितयः	-11.3864
▁लग्न	-11.3864
चिन्तामणिः	-11.3866
▁प्रदीप	-11.3867
▁वर्णाः	-11.3869
प्रतिभूति	-11.3869
▁वाचक	-11.387
वल्ली	-11.387
▁कथितः	-11.3871
▁छल	-11.3872
▁उच्चतर	-11.388
▁कण्टक	-11.388
मितर	-11.3882
▁दण्डी	-11.3883
▁हासन	-11.3883
▁विशिष्टाः	-11.3884
विरह	-11.3885
▁यजु	-11.3886
▁अतोऽस्य	-11.3887
जनपदस्य	-11.3889
▁भवनस्य	-11.3889
▁निर्माता	-11.389
▁प्रसिद्धिं	-11.389
समृद्ध	-11.3892
धर्मनिबन्धकार	-11.3895
मुत्पद्यते	-11.3895
ris	-11.3896
▁हेय	-11.3896
ादाय	-11.3897
▁भाष्यम्	-11.3899
▁वियोग	-11.3903
▁राधाकृष्ण	-11.3905
दर्शि	-11.3906
▁सार्वभौम	-11.3907
काशी	-11.3909
▁हरियाणाराज्य	-11.3912
तारक	-11.3912
▁मार्कण्डेय	-11.3912
▁विलियम	-11.3913
▁१२०	-11.3913
cle	-11.3913
ik	-11.3913
▁गच्छन्त	-11.3914
ऽतीव	-11.3915
श्लाघ	-11.3917
बेट्ट	-11.3919
▁कथितं	-11.3921
कालपर्यन्त	-11.3922
[...]
